#version: 0.2
# #
i n
s e
u n
1 9
e r</w>
u se
use d
un used
[ unused
a n
a r
## t
o r
o n</w>
## l
## r
## i
0 0</w>
s t
## a
o n
e r
## c
m a
## n
2 0
e n
## o
a n</w>
## b
t i
r e
## u
## m
i c
l e</w>
in g</w>
## s
a c
## e
## d
h o
## p
l o
t o
c o
a l
i t
i n</w>
e s</w>
e n</w>
## g
a s
a l</w>
1 8
c h
## h
ま す</w>
## f
## w
v i
r i
a t
u r
a m
s t</w>
r o
e d</w>
l i
e l</w>
d i
a p
0 0
e l
ti on</w>
s e</w>
a y</w>
1 0</w>
s i
o o
e t</w>
a r</w>
a d
## v
s o
e c
a g
e t
a m</w>
v e</w>
s s</w>
m e</w>
1 2
## k
u s</w>
t h
p o
c e</w>
1 0
e m
a i
5 0</w>
## 0
i a</w>
d o
3 4
3 0
20 1
m o
l l</w>
f i
en t</w>
c h</w>
a d</w>
2 0</w>
d e</w>
8 0</w>
1 6
1 1</w>
p l
n o
i s</w>
e x
9 9</w>
5 0
## 3
w e
to p
p s</w>
g e</w>
7 0</w>
1 3
w i
u t
t s</w>
r y</w>
l e
k i
h i
ar d</w>
a t</w>
3 2
20 0
## j
## 2
t e</w>
m a</w>
l a</w>
k e</w>
a y
a tion</w>
a s</w>
a b
6 0</w>
2 8
2 7
2 4
1 7
1 4
## z
## 5
## 4
st e
s p
s h</w>
q u
on e</w>
l y</w>
ic e</w>
i l</w>
e d
9 0</w>
4 0
3 6
3 3
2 3
2 2
1 6</w>
1 5
## y
## st
## an
▲ top
t r
s c
or e</w>
m m</w>
it y</w>
in e</w>
i c</w>
g b</w>
e y</w>
e b
b u
ar e</w>
[unused 9
[unused 8
[unused 7
[unused 6
8 8</w>
3 5
2 6
2 5
1 2</w>
## ー
## な
## 7
て い
w s</w>
v er
ur e</w>
u b
t er</w>
s u
s h
r e</w>
o l
m ar
j o
i t</w>
h t</w>
f t</w>
f or
d y</w>
d s</w>
d e
at e</w>
an d</w>
ac e</w>
[unused 5
[unused 4
3 8
3 7
2 9
19 4
19 3
1 ]</w>
1 8</w>
1 5</w>
1 3</w>
## x
## ma
## er
## 9
## 8
## 6
り ます</w>
し た</w>
y o
w or
v er</w>
u e</w>
t o</w>
t e
s on</w>
n i
n e
lo g
k s</w>
i o
g ht</w>
d er</w>
c k</w>
b o
b e
an g</w>
3 9
19 7
19 6
19 5
19 2
19 0
1 9</w>
1 7</w>
1 4</w>
##r i
## ～
## in
w in
u s
u l
r o</w>
p p
p i
p h
p e</w>
or t</w>
o l</w>
m l</w>
m i
m e
l o</w>
l in
j u
g o
g i
f e
d ay</w>
d a</w>
co m
c on
b s</w>
b i
ar y</w>
ag e</w>
a u
4 5
4 2
4 0</w>
3 0</w>
19 9
19 8
0 2
##t i
##l o
## て
w h
u m</w>
t v</w>
t t</w>
t a</w>
s s
s a
r a</w>
p re
p e
or y</w>
on g</w>
o k</w>
o f
m ent</w>
k er</w>
it e</w>
g u
g o</w>
el l</w>
c t</w>
c m</w>
b er</w>
b a</w>
as e</w>
al l</w>
ac k</w>
3 ]</w>
2 ]</w>
##r e
##l i
##c o
##c h
##b o
## ま
## の
## こ
## か
## い
## 201
イ ト</w>
た さ
く たさ
★ ★
w n</w>
u r</w>
t w
t h</w>
t er
t a
s p</w>
s a</w>
r a
p ro
p ar
ma il</w>
m on
l d</w>
l as
h t
g er</w>
g a</w>
f r
f e</w>
en ce</w>
ec t</w>
e st</w>
c o</w>
c i
b oo
b log
b c</w>
9 ]</w>
8 ]</w>
8 5</w>
7 ]</w>
6 ]</w>
5 ]</w>
4 ]</w>
18 9
1 00</w>
1 00
0 00</w>
## れ
## se
## ho
てい ます</w>
て す</w>
て き
す か</w>
し て</w>
v a</w>
un i
u t</w>
u n</w>
u m
ti on
t y</w>
t i</w>
ste p
st y
si on</w>
se r
s y
re e</w>
pi x
p g</w>
o s</w>
o r</w>
o p</w>
ne ws</w>
n et
m an
l s</w>
l l
l a
k y</w>
j i</w>
io s
in t</w>
in a</w>
ic k</w>
i d</w>
g oo
g le</w>
er e</w>
eb oo
e ss</w>
e p</w>
e e</w>
di a</w>
d ay
con t
c s</w>
c re
c d</w>
c a</w>
b e</w>
am e</w>
a p</w>
a i</w>
9 1</w>
8 6</w>
6 6</w>
5 5</w>
5 2
4 4
4 3
##u r
## よ
## と
## あ
## vi
## or
## en
ま した</w>
て くたさ
っ た</w>
さ れ
い ます</w>
x x</w>
un t</w>
un g</w>
un d</w>
ub li
u se</w>
u p</w>
u l</w>
u c
to r</w>
t v
t ure</w>
t ri
t le</w>
t el</w>
st r
ser v
s m</w>
s ho
r am</w>
p y</w>
p t</w>
p le</w>
p in
on y</w>
o w</w>
o t</w>
o c
n et</w>
n b
n a</w>
ma n</w>
ma ll</w>
ma g
m y</w>
m s</w>
m in</w>
m in
m i</w>
m et
m em
lo w</w>
l es</w>
k y
k g</w>
k e
k a</w>
i p
i o</w>
i m
i e</w>
h z</w>
h u
h e</w>
h e
g s</w>
g n</w>
f ri
f in
f an
f ac
f a</w>
ex t</w>
en ts</w>
e w</w>
d re
d d</w>
d c</w>
ch an
c an
c am
b r
at a</w>
as t</w>
ar t</w>
ar k</w>
ap p</w>
an t</w>
ai r
ai d</w>
ag o</w>
ac t</w>
a z
a vi
a v
9 8</w>
9 5</w>
6 8</w>
6 5</w>
5 00</w>
2 5</w>
0 ]</w>
0 7
0 1</w>
##こ と
##w or
##s h
##p o
##f or
##f i
## ン
## ッ
## た
## on
ー ト
ー ク
ーク ケ
ークケ ート
ワ ークケート
サ ー
サ イト</w>
の て</w>
てき ます</w>
てい る</w>
て も</w>
て すか</w>
っ て</w>
ち ゃ
し ます</w>
か ら</w>
か ら
あ る</w>
あ ります</w>
y e</w>
y e
wor k</w>
win do
wi l
we e
w w</w>
w it
w at
w ard</w>
ver y</w>
v o</w>
v o
v en</w>
ur b
un t
u d</w>
to m</w>
ti ve</w>
ti f
th er</w>
t p</w>
t on</w>
t ec
t d</w>
sty le</w>
so ci
se n
s wi
s u</w>
s o</w>
s in
s hi
s c</w>
ri ght</w>
r m</w>
r m
r ag
q q</w>
q l</w>
pre ss</w>
po w
pl ay</w>
p y
p v</w>
p ubli
p u</w>
p ri
p p</w>
p ort</w>
p i</w>
p ho
p er</w>
p er
p c
p an
p a</w>
oo d</w>
of f
o m</w>
ni k
n s</w>
n ing</w>
n er</w>
n e</w>
n c</w>
ma x</w>
m t</w>
m s
m p</w>
m on</w>
m ic
lo g</w>
lin k</w>
li fe</w>
l t</w>
l on
l la</w>
l and</w>
k i</w>
k b</w>
j e
it ed</w>
in st
i v
i ph
i p</w>
i de</w>
i an</w>
ho me</w>
h er
h el
h a
g r
g in
g h</w>
g et</w>
g al
fr an
fac eboo
f o</w>
f o
f f</w>
er s</w>
er ry</w>
em ber</w>
el s</w>
e x</w>
e m</w>
e di
e a</w>
e 6</w>
di s
di o</w>
d u</w>
d on</w>
d ing</w>
d i</w>
d en</w>
ch ic
c ur
c l
c en
c a
bo x</w>
b ri
b l</w>
ar s</w>
an g
an d
al k</w>
ab y</w>
a x</w>
a ut
a g</w>
8 9</w>
8 00</w>
7 8</w>
7 8
6 7</w>
6 1</w>
6 00</w>
50 00</w>
5 6</w>
5 00
34 5</w>
30 00</w>
201 7</w>
20 00</w>
2 4</w>
2 1</w>
00 1</w>
0 9</w>
##l l
## イ
## け
## き
## 200
## 16
～ ～</w>
～ 5</w>
～ 4</w>
１ ０</w>
ン ト</w>
ロ ク
リ ス
リス ト
ョ ン</w>
メ ント</w>
ホ ン
ヒ ス</w>
ハ イト</w>
テ ン
タ ー</w>
ス ホン
シ ョン</w>
サー ヒス</w>
サ ー</w>
コ メント</w>
カ ー</w>
ん な</w>
ん か</w>
を こ</w>
を お</w>
れ る</w>
れ た</w>
り の</w>
よ り</w>
ょ う</w>
も っ
め て</w>
ま せ
へ て</w>
は お</w>
に は</w>
に な
に お</w>
な と
な た
と ん
てくたさ い</w>
てくたさ い
てい る
っ ています</w>
そ の</w>
す る</w>
す る
し ている
し ています</w>
し て
し い</w>
さ ん</w>
さ います</w>
こ の</w>
け ます</w>
くたさ い</w>
か てきます</w>
お り</w>
い て</w>
い う</w>
★★ ★</w>
★ ★</w>
◆ ◆</w>
▲top ma
▲top ju
▲ to
↓ ↓</w>
z e</w>
y pe</w>
y es</w>
y am</w>
x xx</w>
x u
wor ld</w>
wil li
wi ki
wee k</w>
we i</w>
we et</w>
we d
wed ding</w>
wat ch</w>
w o
w ar
war ds</w>
w an</w>
w al
vi p</w>
vi ew</w>
vi a</w>
ver s
v p</w>
v ol
v ity</w>
v in</w>
v i</w>
v c</w>
v an
v al
v 6</w>
ut l
ur n</w>
uni vers
un der</w>
un d
ub unt
u x</w>
u tion</w>
u ll</w>
u i</w>
u d
u ary</w>
u a</w>
tw it
tri p</w>
tr ac
to s</w>
to day</w>
tion al</w>
ti tle</w>
ti c
th is</w>
th in
tec h</w>
te ch
t x
t es</w>
t ed</w>
t c
t b</w>
t ai
t 2</w>
st u
st ory</w>
st er</w>
st ed</w>
st ation</w>
st ar
sp ace</w>
so h
so ft</w>
so f
si s</w>
si gn</w>
si de</w>
si c</w>
si a</w>
sho p</w>
serv ice</w>
sen se</w>
se p</w>
se p
se l
se e</w>
se ar
sear ch</w>
se an</w>
sc ri
sc i</w>
s ur
s un
s ql</w>
s po
s or
s k</w>
s aid</w>
s 7</w>
s 4</w>
s 3</w>
ro up</w>
ro m</w>
ri ve</w>
ri s</w>
re ad</w>
re ad
rag on</w>
r y
r t</w>
r ick</w>
r ice</w>
r ic
r d</w>
r ar</w>
qu o</w>
qu e</w>
q i</w>
q 1</w>
py right</w>
publi sh
pri v
pow er
po p
pop ul
po int</w>
pl ay
pix sty
pin ter
pe dia</w>
p x</w>
p u
p ro</w>
p or
p m</w>
p m
p hi
p en</w>
p d
p c</w>
p at
p ad</w>
p 3</w>
or z</w>
oo m</w>
on s</w>
on ic</w>
on d</w>
ol ed</w>
ol d</w>
of f</w>
o wn</w>
o ver
o ut</w>
o us</w>
o tt</w>
o ki
no w</w>
no v</w>
no te</w>
ni e</w>
n y</w>
n u</w>
n t</w>
n h
n g</w>
n el</w>
n b</w>
n at
n an
n ame</w>
n a
na tional</w>
mo d
me ga</w>
mar k
man ag
ma t
ma s</w>
ma p</w>
ma ke</w>
ma in</w>
m w
m v</w>
m u
m or
m o</w>
m l
m es</w>
m er</w>
m en</w>
m b</w>
log y</w>
lo ud</w>
lo r</w>
lo ok</w>
lo f
lo ck</w>
lo ad</w>
le y</w>
le on
las t</w>
las s</w>
la b</w>
l ine</w>
l ic
l em
l d
l c</w>
ki p</w>
k or
k o</w>
k m</w>
k k</w>
k it
k ing</w>
k ic
k ia</w>
k en</w>
k b
k an
jo y</w>
jo h
j un
j on
j ect</w>
j an</w>
j an
it al</w>
iph on
ios 9</w>
io s</w>
in ter
in s</w>
in fo</w>
ic s</w>
ic ation</w>
ic al</w>
ic a</w>
i x</w>
i so
i s
i r</w>
i on</w>
i m</w>
i ly</w>
i l
i i</w>
i b
i al</w>
ho use</w>
ho t</w>
ho t
ho st</w>
ho p</w>
ho o</w>
hi p</w>
h on
h l</w>
h ing</w>
h i</w>
h er</w>
h d</w>
h d
h as</w>
h ard</w>
h ap
hap py</w>
h an</w>
h a</w>
goo gle</w>
gi r
g y</w>
g ue</w>
g re
g or
g i</w>
g e
g ar
g am
fri en
for d</w>
fo x</w>
fi x</w>
fi le</w>
fe b</w>
f m</w>
f i</w>
f c</w>
f ace</w>
f a
f 1</w>
er y</w>
er t</w>
er g</w>
en g
en er
em s</w>
el le</w>
el la</w>
el d</w>
e ws</w>
e st
e se</w>
e o</w>
e mail</w>
e c</w>
e b</w>
e an</w>
e 7</w>
do s</w>
do m</w>
di t</w>
de c</w>
d u
d o</w>
d j</w>
d ge</w>
d dd</w>
d b</w>
d avi
d an</w>
d an
d ai
con n
co oki
co me</w>
co l
chan ge</w>
ch o</w>
ch en</w>
ch e
ch ar
cen tr
c ore</w>
c on</w>
c i</w>
c ho
c ess</w>
c d
c c</w>
c b</w>
c at</w>
c ard</w>
c ar
c al</w>
c ad</w>
c 2</w>
bu g</w>
bri dge</w>
boo k</w>
bi le</w>
b y</w>
b ro
b le</w>
b l
b i</w>
b d</w>
b ase</w>
b ang</w>
b an
b 3</w>
b 2
ay s</w>
au g</w>
as y</w>
as s</w>
as on</w>
ar tic
ar i</w>
ar ch
ar a</w>
ap r</w>
ang el
an n</w>
am p</w>
am er
am e
al ph
al ex
ai r</w>
ai l</w>
ag s</w>
ad e</w>
ad a</w>
ac he</w>
ac h</w>
ab le</w>
ab els</w>
a ve</w>
a k</w>
a in</w>
a hoo</w>
a h</w>
a di
a c</w>
a b</w>
a a</w>
K ]</w>
9 85</w>
9 7</w>
9 1
8 gb</w>
8 5
8 4</w>
8 3
8 2</w>
8 0
7 99</w>
7 7</w>
7 5</w>
7 1</w>
6 4
6 3</w>
6 2
6 0
5 9</w>
5 95</w>
5 8</w>
5 7</w>
5 7
5 3
4 g</w>
4 8</w>
4 7</w>
4 3</w>
34 0</w>
30 6</w>
3 c</w>
3 7</w>
3 4</w>
22 1</w>
201 6</w>
20 10</w>
2 k</w>
2 8</w>
2 2</w>
18 5</w>
12 3</w>
12 34
12 0</w>
10 1</w>
10 00</w>
1 50</w>
1 11</w>
1 10</w>
00 9</w>
00 7</w>
0 5</w>
##よ う
##ま せ
##て き
##v er
##p l
##n o
##m o
##l in
##e t
## ル
## リ
## テ
## ク
## ち
## un
￥ 799</w>
￥ 28
￥28 99</w>
～ ～～</w>
～ 3</w>
～ 2</w>
～ 1</w>
～ 10</w>
ｗ ed
ｗed ding</w>
ｏ ｋ</w>
ｃ ｐ</w>
５ ０</w>
３ ０</w>
２ ４</w>
２ ０</w>
１ ８</w>
１ ６</w>
１ ５</w>
１ ４</w>
１ ３</w>
１ ２</w>
１ １</w>
１ ヶ</w>
０ ０</w>
㎡ 2</w>
㎡ 1</w>
ー フ
ーフ ン
ーフン 5</w>
ー シ
ーシ を</w>
ー カー</w>
ン ル
ンル の</w>
ン ク</w>
ン ク
ンク テン
ンクテン マ
ンクテンマ 3</w>
ワークケート を</w>
ワークケート へ</w>
ワークケート の</w>
ロク イ
ロクイ ン</w>
ロク に</w>
ロ ク</w>
レ ス</w>
ル を</w>
リスト を</w>
リスト に</w>
リ ヘ
リヘ ル</w>
ラ ン</w>
ラ ッ
ラッ ク
ラック ハ
ラックハ ッ
ラックハッ ク</w>
ュ ー</w>
ャ ンルの</w>
メ ーカー</w>
マ ッ
マッ チ
マッチ した</w>
フ ロクに</w>
フ ト</w>
フ ト
フト サーヒス</w>
ヒ ンクテンマ3</w>
ハ ー</w>
ニ ア</w>
ナ ー</w>
ト ラックハック</w>
ト は</w>
テン マ</w>
テ リヘル</w>
ッ フ</w>
タ ッフ</w>
ソ フトサーヒス</w>
セ ーシを</w>
セ ス</w>
スホン サー</w>
スホン サー
スホンサー サイト</w>
ス ト</w>
ス タッフ</w>
ス キ
スキ ル</w>
シ ャンルの</w>
シ てす</w>
サ イ
サイ トは</w>
キ ンク</w>
カ せ
カせ る
カせる テンマ</w>
オ ーフン5</w>
イ カせるテンマ</w>
ィ ー</w>
ん も</w>
ん て</w>
わ せ</w>
ろ ん</w>
ろ う</w>
る のて</w>
り ませ
りませ ん</w>
り ました</w>
り は</w>
り な</w>
ら ワークケートへ</w>
ら れた</w>
よ る</w>
や り</w>
もっ と</w>
もっ と
もっと マッチした</w>
も み
もみ つ
もみつ か
もみつか っ
もみつかっ ちゃ
もみつかっちゃ う
もみつかっちゃう か
もみつかっちゃうか も</w>
も ち
もち ろん</w>
も う</w>
め る</w>
め ま
めま して</w>
め に</w>
め た</w>
み リストを</w>
み ませ
みませ んか</w>
み の</w>
み てす</w>
み てくたさい
みてくたさい ね</w>
み い
みい た
みいた た
みいたた けます</w>
ま て</w>
ま た</w>
ま た
また は</w>
へ の</w>
は １ヶ</w>
は とん
はとん とん
はとんとん ワークケートを</w>
は す
はす へて</w>
は し
はし めまして</w>
は い</w>
の ハイト</w>
の な
のな い
のない フロクに</w>
の こ</w>
の お</w>
の ある</w>
にな る</w>
にな ります</w>
に よる</w>
に より</w>
に もっとマッチした</w>
に も</w>
に はとんとんワークケートを</w>
に つ
につ いて</w>
に こ</w>
なと はお</w>
なと の</w>
なた にもっとマッチした</w>
なた に</w>
な らワークケートへ</w>
な ら</w>
な のて</w>
な と</w>
な し</w>
な し
なし ソフトサーヒス</w>
な お</w>
な い</w>
と は</w>
と の</w>
と ても</w>
と して</w>
と かてきます</w>
と いう</w>
と あ
とあ なたにもっとマッチした</w>
てくたさい ♪
てくたさい♪ この</w>
てき る</w>
てき ちゃ
てきちゃ います</w>
て は</w>
て の</w>
て ない</w>
て した</w>
て お</w>
て ある</w>
っ と</w>
っ てくたさい</w>
っ ている</w>
ちゃ ん</w>
ち てない</w>
ち てすか</w>
た の</w>
た と</w>
そ んな</w>
そ して</w>
せ よ</w>
せ ます</w>
せ から
せから こ</w>
する とあなたにもっとマッチした</w>
する こ
するこ とかてきます</w>
す のて</w>
す く</w>
している と</w>
している から</w>
して みてくたさいね</w>
して おり</w>
し ょう</w>
し ました</w>
し の</w>
し にはとんとんワークケートを</w>
し てくたさい♪この</w>
し てくたさい</w>
し ている</w>
し く</w>
し か
しか し</w>
され る</w>
され ます</w>
され ています</w>
され た</w>
さ んも</w>
さ い</w>
こ さいます</w>
け る</w>
け て</w>
け た</w>
く れる</w>
く の</w>
き を</w>
き なしソフトサーヒス</w>
き な</w>
から の</w>
から お</w>
か ります</w>
か こさいます</w>
か かります</w>
か お</w>
か ある</w>
か あります</w>
お ります</w>
え る</w>
え て</w>
い を</w>
い てす</w>
い た</w>
い します</w>
い お</w>
い え</w>
い いえ</w>
あ りな</w>
あ り</w>
❤ 2017</w>
♥ yo
♥yo yo
♥yoyo ♥</w>
☆ ☆</w>
☆ ☆☆</w>
★★ ★★★</w>
★★ ★★</w>
○ ○</w>
▽ ˊ</w>
▲topma y</w>
▲topma r</w>
▲topju n</w>
▲topju l</w>
▲top sep</w>
▲top nov</w>
▲top jan</w>
▲top feb</w>
▲top dec</w>
▲top aug</w>
▲top apr</w>
▲to po
▲topo ct</w>
▲to p</w>
▌ ♥</w>
─ ─</w>
⋯ ⋯</w>
∟ ∣</w>
↓ ↓↓</w>
ˋ ▽ˊ</w>
× ×</w>
× email</w>
± 0</w>
° c</w>
z z
zz a</w>
z oom</w>
z one</w>
z on</w>
z ol</w>
z o</w>
z ip</w>
z i</w>
z i
zi lla</w>
z h</w>
z er
zer o</w>
z en</w>
z en
zen f
zenf one</w>
z ara</w>
z 2</w>
yo ut
yout ub
youtub e</w>
yo ur</w>
yo ung</w>
yo u</w>
yo u
you go
yougo u</w>
yo ta</w>
yo ga</w>
ye s
yes style</w>
ye ars</w>
ye ar</w>
y z</w>
y y</w>
y um
yum i</w>
y u</w>
y ti
yti cs</w>
y tes</w>
y sql</w>
y son</w>
y or
yor k</w>
y ond</w>
y mo
ymo us
ymous said</w>
y le</w>
y in</w>
y i</w>
y dj</w>
y ang</w>
y am
yam service</w>
y al</w>
y ahoo</w>
y a</w>
xu ite</w>
xu e
xue h
xueh ai</w>
x z</w>
x yz</w>
x y</w>
x xxx</w>
x r</w>
x per
xper ia</w>
x p</w>
x p
xp a
xpa ste
xpaste ch
xpastech at</w>
x ml</w>
x l</w>
x i</w>
x ford</w>
x ddd</w>
x dd</w>
x d</w>
x box</w>
x a</w>
x 9</w>
x 86</w>
x 7</w>
x 6</w>
x 5</w>
x 4</w>
x 3</w>
x 2</w>
x 24</w>
x 1</w>
x 17
x17 house</w>
wor ld
world cat</w>
wor ks</w>
wor d</w>
wor d
word press</w>
wo shi
woshi pm</w>
wo men</w>
wit ter</w>
wit h</w>
wit ch</w>
windo ws</w>
windo w</w>
windo w
window s7</w>
win rar</w>
win d</w>
win 8</w>
win 7</w>
win 10</w>
willi am</w>
willi am
william s</w>
wil son</w>
wiki pedia</w>
wiki lin
wikilin u
wikilinu xpastechat</w>
wi sh</w>
wi ll</w>
wi kia</w>
wi ki</w>
wi i</w>
wi fi</w>
wh y</w>
wh o</w>
wh ite</w>
wh ere</w>
wh en</w>
wh at</w>
wh at
what s
whats app</w>
wee ks</w>
we st</w>
we st
west bro
westbro ok</w>
we ib
weib o</w>
we b</w>
we b
web 8
web8 85</w>
we ar</w>
wat er</w>
wal ker</w>
wal i</w>
w x17house</w>
w ww</w>
w w
ww dc</w>
w u</w>
w to</w>
w r
wr ite</w>
w ps</w>
w p</w>
w ow</w>
w ong</w>
w on
won d
wond er
wonder land</w>
w news</w>
w n
wn load</w>
w ma</w>
w m</w>
w l</w>
w ing</w>
w ine</w>
w in</w>
w i</w>
w er</w>
w ell</w>
w el
wel come</w>
w ed</w>
w e</w>
w d</w>
w az
waz e</w>
w ay</w>
w ave</w>
w as</w>
w as
was h
wash in
washin g
washing ton</w>
w ar</w>
w ap</w>
w ant</w>
w ang</w>
w am</w>
w all</w>
w ade</w>
vol vo</w>
vol ution</w>
vo ice</w>
vo gue</w>
vo d</w>
vi vo</w>
vi vi</w>
vi ve</w>
vi su
visu al</w>
vi st
vist a</w>
vi so
viso r</w>
vi sion</w>
vi sa</w>
vi r
vir t
virt u
virtu al</w>
vi ous</w>
vi m</w>
vi lla</w>
vi ll
vill age</w>
vi ews</w>
vi e</w>
vi dia</w>
vi de
vide o</w>
ver sion</w>
ver note</w>
ver a</w>
van s</w>
van c
vanc ed</w>
val ue</w>
val ley</w>
v sc</w>
v sa</w>
v s</w>
v r</w>
v ps</w>
v p
vp n</w>
v or
vor n
vorn ad
vornad o</w>
v on</w>
v ol</w>
v mw
vmw are</w>
v ma
vma life</w>
v m</w>
v ing</w>
v in
vin c
vinc ent</w>
v ic
vic t
vict or
victor ia</w>
v home</w>
v ga</w>
v fm</w>
v ey</w>
v et
vet em
vetem ents</w>
v ent</w>
v en
ven ch
vench y</w>
v ember</w>
v el</w>
v e
ve lo
velo p
velop ment</w>
v dc</w>
v d</w>
v d
vd f</w>
v cd</w>
v b</w>
v at
vat ore</w>
v ar</w>
v an</w>
v ago</w>
v 9</w>
v 8</w>
v 5</w>
v 4</w>
v 3</w>
v 3000</w>
v 2</w>
v 1</w>
utl et</w>
utl er</w>
ut ure</w>
ut nik
utnik news</w>
ut look</w>
ut h</w>
ut ers</w>
ut en</w>
ut e</w>
ut c</w>
use um</w>
use r</w>
us se
usse ll</w>
us o</w>
us news</w>
us d</w>
us b</w>
us b3</w>
us a</w>
urb o</w>
urb erry</w>
urb an</w>
ur t</w>
ur se</w>
ur n
urn al</w>
ur l</w>
ur k</w>
ur g</w>
ur ch</w>
ur ce</w>
ur ant</w>
ur al</w>
unt ry</w>
univers ity</w>
univers al</w>
uni x</w>
uni q
uniq lo</w>
uni on</w>
und ation</w>
und am</w>
un ty</w>
un ta
unta in</w>
un ning</w>
un ity</w>
un ited</w>
un it</w>
un ic
unic o
unico de</w>
un es</w>
un c
unc tion</w>
um wikilinuxpastechat</w>
um p</w>
um ia</w>
um ber</w>
ul us</w>
ul u</w>
ul ture</w>
ul tr
ultr a</w>
ul ti</w>
ul d</w>
ud nb
udnb kk</w>
ud n</w>
uc ture</w>
uc ky</w>
uc bug</w>
uc ation</w>
ubunt u</w>
ubunt u
ubuntu for
ubuntufor umwikilinuxpastechat</w>
ubli c</w>
ub y</w>
ub le</w>
ub er</w>
u z</w>
u v</w>
u ps</w>
u pe</w>
u pd
upd ate</w>
u ke
uke 62
uke62 max</w>
u k</w>
u is</w>
u hz</w>
u gh</w>
u g</w>
u fo</w>
u ch</w>
u ce</w>
u c</w>
u b</w>
u 11</w>
tx t</w>
tx s
txs w</w>
twit ter</w>
twit ter
twitter pinter
twitterpinter est
twitterpinterest google</w>
tw o</w>
tw ice</w>
tw d
twd 600</w>
tw are</w>
tv mall</w>
tv g</w>
tv bs</w>
tv b</w>
tri vago</w>
tri p
trip ad
tripad visor</w>
trac tion</w>
trac kb
trackb ack</w>
tr ump</w>
tr ue</w>
tr onic</w>
tr l</w>
tr c</w>
tr av
trav el</w>
top ios9</w>
top app</w>
top 10</w>
top 100</w>
to yota</w>
to wn</w>
to wer</w>
to ur</w>
to uch</w>
to shop</w>
to p</w>
to o</w>
to m
tom tom</w>
to ky
toky o</w>
to kic
tokic ho
tokicho i</w>
to cad</w>
to ber</w>
tion s</w>
tion ing</w>
tion ary</w>
tif y</w>
tif ul</w>
tif fan
tiffan y</w>
ti vity</w>
ti se
tise ment</w>
ti ps</w>
ti n</w>
ti mes</w>
ti me</w>
ti m</w>
ti la</w>
ti ger</w>
ti c</w>
thin k</w>
thin k
think pad</w>
th under</w>
th u</w>
th s</w>
th ree</w>
th read</w>
th ony</w>
th on</w>
th ey</w>
th ere</w>
th eb
theb y</w>
th e</w>
th at</w>
th an</w>
th ai</w>
ter ta
terta in
tertain ment</w>
tech orz</w>
tech no
techno logy</w>
tec ted</w>
te x</w>
te st</w>
te s
tes la</w>
te e</w>
te am</w>
te a</w>
te 7</w>
tc p</w>
tc l</w>
tai wan</w>
tai pe
taipe i</w>
ta ke</w>
ta i</w>
ta g</w>
ta b</w>
t z</w>
t ype</w>
t x</w>
t weet</w>
t w</w>
t us</w>
t urn</w>
t urbo</w>
t ue</w>
t tp</w>
t ree</w>
t ps</w>
t pp</w>
t per
tper ma
tperma link</w>
t ory</w>
t ony</w>
t ner</w>
t mt</w>
t ml</w>
t m</w>
t link</w>
t ina</w>
t in
tin ker</w>
t ho
tho mas</w>
t ft</w>
t f</w>
t ext</w>
t ember</w>
t ed
ted dy</w>
t cs</w>
t c</w>
t bs</w>
t ay
tay lor</w>
t asy</w>
t ar
tar get</w>
t an</w>
t alk</w>
t al
tal k
talk 2
talk2 yam</w>
t ags</w>
t able</w>
t 3</w>
t 1</w>
sy ste
syste m</w>
sy st
syst ems</w>
sy nc</w>
sy l
syl via</w>
sy kb</w>
swi ss</w>
swi ss
swiss info</w>
swi ft</w>
sur vey</w>
sur face</w>
sun ny</w>
sun day</w>
su v</w>
su pre
supre me</w>
su pp
supp ort</w>
su per</w>
su n</w>
su m
sum mer</w>
su lt</w>
su ite</w>
su i</w>
stu dy</w>
stu dio</w>
str ucture</w>
str ong</w>
str ing</w>
str act</w>
step 5</w>
step 4</w>
step 3</w>
step 2</w>
step 1</w>
ste ven</w>
ste ve</w>
ste ph
steph en</w>
ste p</w>
ste am</w>
star t2</w>
star bu
starbu c
starbuc ks</w>
st s</w>
st ri
stri bu
stribu tion</w>
st re
stre et</w>
st ore</w>
st or
stor et
storet vhome</w>
st op</w>
st one</w>
st iv
stiv al</w>
st in</w>
st ian</w>
st h
sth ree</w>
st er
ster card</w>
st el</w>
st co</w>
st ay</w>
st ate</w>
st at
stat es</w>
st art</w>
st ar</w>
st and
stand ard</w>
st al</w>
st age</w>
st a
sta urant</w>
ss o</w>
ss l</w>
ss ica</w>
ss d</w>
ss age</w>
ss 3</w>
spo tify</w>
spo t</w>
sp utniknews</w>
sp r
spr ing</w>
sp ort</w>
sp or
spor ts</w>
sp f</w>
sp ec
spec ial</w>
sp e
spe ed</w>
sp ark</w>
sp an</w>
sp a</w>
sor ry</w>
sor ed</w>
soh u</w>
soh o</w>
sof tware</w>
sof as
sofas core</w>
soci et
societ y</w>
soci ation</w>
soci al</w>
so uth</w>
so urce</w>
so und</w>
so ul</w>
so theby</w>
so phi
sophi e</w>
so met
somet hing</w>
so me</w>
so lo</w>
so go</w>
so du</w>
so c</w>
sin gle</w>
sin g
sing ap
singap ore</w>
sin ess</w>
si ze</w>
si tioning</w>
si r</w>
si r
sir i</w>
si mon</w>
si m</w>
si m
sim ple</w>
si l
sil ver</w>
si e</w>
si d
sid eb
sideb ar</w>
sho w</w>
sho pp
shopp ing</w>
shi rt</w>
shi ft</w>
sh u</w>
sh tml</w>
sh i</w>
sh ell</w>
sh e</w>
sh base</w>
sh are</w>
sh ad
shad ow</w>
serv ic
servic es</w>
serv ed</w>
ser ver</w>
sep tember</w>
sep h</w>
sen ger</w>
sel f</w>
sel ect</w>
se x</w>
se ven</w>
se t</w>
se s
ses sion</w>
se ri
seri es</w>
se o</w>
se cur
secur ity</w>
se cre
secre t</w>
se con
secon d</w>
se ason</w>
se a</w>
scri pt</w>
scri be</w>
sc uz</w>
sc r
scr um</w>
sc p</w>
sc o</w>
sc i
sci ence</w>
sc ho
scho ol</w>
sc ap
scap e</w>
sa ve</w>
sa p</w>
sa o</w>
sa le</w>
sa int</w>
sa f
saf ari</w>
sa as</w>
s witch</w>
s weet</w>
s watch</w>
s ung</w>
s sh</w>
s senger</w>
s r</w>
s qu
squ are</w>
s play</w>
s ort</w>
s ony</w>
s ong</w>
s ns</w>
s n</w>
s ms</w>
s mar
smar t</w>
s map</w>
s mall</w>
s m
sm it
smit h</w>
s l</w>
s ky</w>
s ky
sky pe</w>
s kip</w>
s k
sk in</w>
s ite</w>
s ina</w>
s i</w>
s gs</w>
s g</w>
s f</w>
s d</w>
s d
sd k</w>
s co
sco tt</w>
s che
sche mas</w>
s bs</w>
s bl</w>
s b</w>
s ays</w>
s ay</w>
s ata</w>
s at</w>
s as</w>
s ars</w>
s ar
sar ah</w>
s an</w>
s an
san ta</w>
s am</w>
s am
sam sung</w>
s al
sal vatore</w>
s 8</w>
s 6</w>
s 5</w>
s 2</w>
s 1</w>
ry stal</w>
ry an</w>
ro yal</w>
ro und</w>
ro ss</w>
ro soft</w>
ro sie</w>
ro se</w>
ro r</w>
ro p
rop box</w>
ro ot</w>
ro om</w>
ro me</w>
ro l</w>
ro id</w>
ro ger</w>
ro ck</w>
ro b
rob ert</w>
ro ad</w>
rm vb</w>
rm k</w>
rm b</w>
ric hard</w>
ric h</w>
ri x</w>
ri ver</w>
ri stian</w>
ri pt</w>
ri ott</w>
ri l</w>
ri g
rig h
righ ts</w>
read ing</w>
read er</w>
re wards</w>
re view</w>
re uters</w>
re turn</w>
re sult</w>
re staurant</w>
re ss</w>
re sort</w>
re sh</w>
re served</w>
re search</w>
re qu
requ est</w>
re port</w>
re pl
repl y</w>
re le
rele ase</w>
re la
rela x</w>
re l
rel at
relat ed</w>
re fox</w>
re di
redi s</w>
re d</w>
re b
reb ec
rebec ca</w>
re al</w>
re ak</w>
rag am
ragam o</w>
ra w</w>
ra ke</w>
ra k
rak uten</w>
ra in</w>
ra in
rain er</w>
ra dio</w>
r x</w>
r v3000</w>
r ussell</w>
r unning</w>
r un</w>
r uby</w>
r uary</w>
r u</w>
r st</w>
r ss</w>
r s</w>
r q</w>
r pg</w>
r p</w>
r na</w>
r n</w>
r gb</w>
r fi
rfi d</w>
r f</w>
r en
ren ds</w>
r d
rd quo</w>
r c</w>
r c
rc ep</w>
r ay</w>
r ate</w>
r ap
rap h
raph y</w>
r aid</w>
r ada</w>
r 9</w>
r 8</w>
r 2</w>
r 1</w>
r 11</w>
qu ot</w>
qu ick</w>
qu es</w>
qu ery</w>
qu e
que en</w>
qu al
qual co
qualco mm</w>
q vod</w>
q t</w>
q s</w>
q r</w>
q q
qq me
qqme i</w>
q e</w>
q a</w>
q 7</w>
q 5</w>
q 4</w>
q 3</w>
q 2</w>
q 10</w>
py thon</w>
publish ing</w>
publish ed</w>
publi c</w>
pu sh</w>
pu ma</w>
pro tected</w>
pro ject</w>
pro g
prog ram</w>
pro file</w>
pro du
produ ct</w>
pro cess</w>
priv ate</w>
priv ac
privac y</w>
pri me</w>
pre vious</w>
pre mi
premi um</w>
pre fix</w>
pp tv</w>
pp t</w>
pp p</w>
pp o</w>
pp i</w>
pp er</w>
power point</w>
power ed</w>
pow er</w>
por ation</w>
por ary</w>
popul ation</w>
popul ar</w>
po sts</w>
po sted</w>
po st</w>
po sitioning</w>
po se</w>
po s</w>
po p</w>
po lo</w>
po lic
polic y</w>
po k
pok em
pokem on</w>
po d</w>
pm 2</w>
pm 1</w>
play station</w>
play er</w>
pl us</w>
pl urk</w>
pl or
plor er</w>
pl ication</w>
pl e
ple ase</w>
pl c</w>
pl az
plaz a</w>
pl an</w>
pl an
plan et</w>
pl ace</w>
pixsty lem
pixstylem e
pixstyleme 3c</w>
pixsty le
pixstyle me</w>
pix net</w>
pix net
pixnet faceboo
pixnetfaceboo ky
pixnetfacebooky ahoo</w>
pix el</w>
pinter est</w>
pin k</w>
pin k
pink o
pinko i</w>
pi zza</w>
pi er
pier re</w>
pi ec
piec e</w>
pho toshop</w>
pho tos</w>
pho to</w>
phi li
phili ps</w>
ph p</w>
ph one</w>
per a</w>
pe pper</w>
pe o
peo ple</w>
pe g</w>
pe c</w>
pd f</w>
pc i</w>
pc home</w>
pc b</w>
pat rick</w>
pat h</w>
par ty</w>
par t</w>
par ker</w>
par k</w>
par is</w>
par adi
paradi se</w>
pan y</w>
pan tos</w>
pan as
panas onic</w>
p wm</w>
p vp</w>
p vc</w>
p ure</w>
p tt</w>
p sp</w>
p son</w>
p se</w>
p s4</w>
p s3</w>
p rice</w>
p re</w>
p rada</w>
p r</w>
p qq</w>
p ony</w>
p on
pon ents</w>
p o</w>
p ng</w>
p mi</w>
p mi
pmi d</w>
p k</w>
p k
pk 10</w>
p ing</w>
p in</w>
p h</w>
p ga</w>
p et</w>
p et
pet er</w>
p en
pen load</w>
p d</w>
p ay</w>
p ay
pay p
payp al</w>
p au
pau l</w>
p ass</w>
p app</w>
p ap
pap er</w>
p an</w>
p ai
pai gn</w>
p age</w>
p ack</w>
p ace</w>
p ac
pac i
paci fi
pacifi c</w>
p 9</w>
p 4</w>
p 2</w>
p 2
p2 p</w>
p 1</w>
p 10</w>
over do
overdo pe</w>
over chic
overchic storetvhome</w>
or th</w>
or s</w>
or poration</w>
or i
ori gin
origin al
original s</w>
or ge</w>
or g</w>
or der</w>
or dan</w>
or d</w>
or an
oran ge</w>
or ac
orac le</w>
or a</w>
oo ps</w>
oo p</w>
oo k</w>
oo gle</w>
on ymoussaid</w>
on t</w>
on o
ono my</w>
on nie</w>
on ly</w>
on line</w>
on al</w>
on al
onal d</w>
ol low</w>
ol di
oldi d</w>
ol den</w>
ol 1</w>
off ice</w>
off ic
offic ial</w>
off er</w>
of week</w>
of o</w>
oc us</w>
oc ulus</w>
oc tober</w>
oc ean</w>
o y</w>
o xford</w>
o vo</w>
o ver</w>
o utlook</w>
o utlet</w>
o ur</w>
o u</w>
o ther</w>
o ppo</w>
o pera</w>
o penload</w>
o pen</w>
o pec</w>
o o</w>
o mega</w>
o m
om b
omb erg</w>
o il</w>
o h</w>
o g</w>
o f</w>
o em</w>
o da</w>
o d</w>
o ct</w>
o be</w>
o b</w>
o b
ob ject</w>
o a</w>
o 2
o2 o</w>
no wnews</w>
no vember</w>
no va</w>
no tes</w>
no te7</w>
no t</w>
no kia</w>
no de</w>
no 1</w>
nik on</w>
nik ki
nikki e</w>
ni usnews</w>
ni ke</w>
ni ght</w>
ni f
nif er</w>
nh urt</w>
nh k</w>
net work</w>
net scape</w>
net f
netf li
netfli x</w>
net com
netcom ponents</w>
ne w</w>
ne ver</w>
ne o</w>
ne go</w>
nb sp</w>
nb ap
nbap op</w>
nb 40</w>
nat ure</w>
nat ural</w>
nan o</w>
nan a</w>
n vidia</w>
n umber</w>
n ull</w>
n td</w>
n son</w>
n pc</w>
n p</w>
n orth</w>
n on</w>
n o</w>
n n</w>
n is</w>
n ick</w>
n ice</w>
n ia</w>
n i</w>
n go</w>
n gin
ngin x</w>
n fc</w>
n f</w>
n ey</w>
n ext</w>
n ex
nex us</w>
n cc</w>
n bc</w>
n ba</w>
n avi
navi g
navig ation</w>
n ata</w>
n as</w>
n as
nas a</w>
n and</w>
n ame
name space</w>
n 9</w>
n 3</w>
n 2</w>
n 28
n28 4
n284 ct</w>
n 1</w>
mw c</w>
mu sic</w>
mu ji</w>
ms n</w>
ms i</w>
ms g</w>
mor pg</w>
mor ning</w>
mon ths</w>
mon te</w>
mon t</w>
mon ey</w>
mon e
mone ydj</w>
mon day</w>
mod er
moder n</w>
mod el</w>
mo zilla</w>
mo vie</w>
mo untain</w>
mo unt</w>
mo to</w>
mo tel</w>
mo st</w>
mo s</w>
mo on</w>
mo mo</w>
mo de</w>
mo d</w>
mo bile</w>
mo ba</w>
mo b
mob il</w>
ml b</w>
ml 5</w>
min k
mink off</w>
min i</w>
min er</w>
min d</w>
mic rosoft</w>
mic ro</w>
mic ha
micha el</w>
mi x</w>
mi ui</w>
mi ss</w>
mi ll
mill er</w>
mi ke</w>
mi ac
miac are</w>
met ro</w>
met al</w>
met a</w>
mem s</w>
mem ory</w>
mem e
meme sh</w>
mem ber</w>
me ssenger</w>
me ssage</w>
me lo
melo dy</w>
me i
mei ki</w>
me dia</w>
mat lab</w>
mat ch</w>
mark et</w>
mark et
market ing</w>
mar y</w>
mar tin</w>
mar riott</w>
mar k</w>
mar ia</w>
mar ch</w>
mar c</w>
manag er</w>
manag em
managem ent</w>
man i</w>
man go</w>
man dy</w>
mag ic</w>
mag gi
maggi e</w>
mag es</w>
mag az
magaz ine</w>
ma zon</w>
ma y</w>
ma tt</w>
ma tion</w>
ma te</w>
ma t</w>
ma stercard</w>
ma ster</w>
ma r</w>
ma ps</w>
ma ma</w>
ma l
mal ay
malay sia</w>
ma ker</w>
ma ji</w>
ma ge</w>
ma de</w>
ma ch
mach ine</w>
ma cd</w>
ma c</w>
ma c
mac book</w>
m ～</w>
m ysql</w>
m x</w>
m w</w>
m vp</w>
m useum</w>
m ulti</w>
m u</w>
m tv</w>
m sci</w>
m r</w>
m pv</w>
m p4</w>
m p3</w>
m ore</w>
m morpg</w>
m last</w>
m k</w>
m k
mk v</w>
m ited</w>
m it</w>
m ing</w>
m hz</w>
m g</w>
m ents</w>
m en
men u</w>
m db</w>
m d</w>
m co</w>
m c</w>
m c
mc u</w>
m bc</w>
m ba</w>
m 8</w>
m 5</w>
m 4</w>
m 3</w>
m 2</w>
m 1</w>
lon zo</w>
lon g
long ch
longch amp</w>
lon don</w>
log o</w>
lof tpermalink</w>
lof ter</w>
lo ve</w>
lo uis</w>
lo st</w>
lo se</w>
lo omberg</w>
lo l</w>
lo has</w>
lo ha
loha sthree</w>
lo ft</w>
lo cal</w>
lo b
lob al</w>
lo ad
load ing</w>
ll ec
llec tion</w>
ll c</w>
ll ars</w>
lin ux</w>
lin ks</w>
lin k
link ed
linked in</w>
lin es</w>
lic k
lick r</w>
li ving</w>
li ve</w>
li u</w>
li st</w>
li sh</w>
li sa</w>
li pse</w>
li mited</w>
li m</w>
li ly</w>
li ke</w>
li ght</w>
li fe
life style</w>
li ent</w>
li e</w>
li day</w>
li br
libr ary</w>
leon nhurt</w>
leon ar
leonar do</w>
lem sn</w>
le vel</w>
le o</w>
le ge</w>
le gal
legal miner</w>
le ft</w>
le e</w>
le ave</w>
le ar
lear ning</w>
ld quo</w>
las sic</w>
las h</w>
la w</w>
la ke</w>
l z</w>
l v</w>
l umia</w>
l ulu</w>
l uke62max</w>
l ucky</w>
l u</w>
l txsw</w>
l te</w>
l td</w>
l p</w>
l ong</w>
l n284ct</w>
l m</w>
l lo</w>
l le</w>
l k</w>
l it
lit tle</w>
l ing</w>
l in</w>
l i</w>
l g</w>
l f</w>
l et</w>
l ery</w>
l en</w>
l en
len ovo</w>
l ed</w>
l cd</w>
l ar</w>
l an</w>
l an
lan gu
langu age</w>
l am
lam i
lami go</w>
l ad
lad y</w>
l abels</w>
l 2</w>
l 1</w>
ky mco</w>
kor ea</w>
kor e
kore an
korean mall</w>
kit ty</w>
kit chen</w>
kic start2</w>
ki t</w>
ki ss</w>
ki mi</w>
ki m</w>
ki e
kie hl</w>
ki ds</w>
ki c</w>
ke vin</w>
ke ep</w>
ke a</w>
kb 48</w>
kan ye</w>
kan shu</w>
k uso</w>
k twitterpinterestgoogle</w>
k tvmall</w>
k tv</w>
k son</w>
k pi</w>
k ong</w>
k now</w>
k l</w>
k in
kin d
kind le</w>
k ey</w>
k et</w>
k el
kel ly</w>
k de</w>
k d</w>
k bs</w>
k ate</w>
k ar
kar l</w>
k ai</w>
k 2</w>
jun io
junio r</w>
jun e</w>
ju stin</w>
ju st</w>
ju n</w>
ju mp</w>
ju ly</w>
ju l</w>
jon es</w>
jon at
jonat han</w>
joh nson</w>
joh n</w>
jo urnal</w>
jo seph</w>
jo se</w>
jo e</w>
jo bs</w>
jo b</w>
je ssica</w>
je ff</w>
je an</w>
jan uary</w>
jan e</w>
j son</w>
j s</w>
j r</w>
j query</w>
j pg</w>
j peg</w>
j p</w>
j ordan</w>
j o</w>
j j</w>
j ing</w>
j im</w>
j im
jim my</w>
j erry</w>
j en
jen nifer</w>
j ch
jch ere</w>
j cb</w>
j b</w>
j ay</w>
j ay
jay z</w>
j ax</w>
j av
jav as
javas c
javasc ript</w>
j ason</w>
j ap
jap an</w>
j am
jam es</w>
j ack</w>
j ac
jac kson</w>
j a
ja va</w>
iv y</w>
iv es</w>
it ute</w>
it unes</w>
it s</w>
it hu
ithu b</w>
it em</w>
it ac
itac hi</w>
iso fix</w>
iso 9
iso9 001</w>
is land</w>
is b
isb n</w>
iphon e7</w>
iphon e6</w>
iph one</w>
ip v6</w>
ip tv</w>
ip o</w>
ip ad</w>
ios 7</w>
ios 11</w>
ios 10</w>
io t</w>
inter net</w>
inter national</w>
inst itute</w>
inst all</w>
inst ag
instag ram</w>
in wedding</w>
in ue</w>
in to</w>
in tel</w>
in side</w>
in see</w>
in paradise</w>
in o</w>
in n</w>
in i</w>
in gs</w>
in for
infor mation</w>
in ese</w>
in dy</w>
in de
inde x</w>
in c</w>
im sean</w>
im g</w>
im f</w>
il ity</w>
il dre
ildre n</w>
ic t</w>
ic p</w>
ic on</w>
ic loud</w>
ic ec
icec at</w>
ic an</w>
ib m</w>
i ve</w>
i v</w>
i um</w>
i u</w>
i sp</w>
i so</w>
i sis</w>
i q</w>
i ps</w>
i pod</w>
i max</w>
i mages</w>
i mage</w>
i ld</w>
i kea</w>
i ke</w>
i is</w>
i ii</w>
i her
iher b</w>
i ght</w>
i g</w>
i for
ifor nia</w>
i f</w>
i es</w>
i el</w>
i e6</w>
i e
ie ee</w>
i de
ide a</w>
i dc</w>
i b</w>
i ang</w>
i 7</w>
i 5</w>
i 3</w>
hu man</w>
hu ang</w>
hu a
hua wei</w>
ht tps</w>
ht tp</w>
ht ml</w>
ht ml5</w>
ht m</w>
ht c</w>
hot mail</w>
hot els</w>
hon ey</w>
hon da</w>
ho ward</w>
ho w</w>
ho tel</w>
ho stel</w>
ho r</w>
ho memesh</w>
ho liday</w>
ho ld</w>
ho la</w>
ho joy</w>
hi v</w>
hi t</w>
hi story</w>
hi on</w>
hi ll</w>
hi gh</w>
hi bi
hibi tion</w>
her o</w>
her me</w>
hel papp</w>
hel p</w>
hel lo</w>
he art</w>
he al
heal th</w>
he ad</w>
he ad
head lines</w>
hd r</w>
hd mi</w>
ha ve</w>
h u</w>
h su</w>
h r</w>
h pv</w>
h p</w>
h ong</w>
h o</w>
h mv</w>
h ktvmall</w>
h k</w>
h itachi</w>
h is</w>
h gi
hgi h</w>
h ey</w>
h ere</w>
h en
hen ry</w>
h bl</w>
h ar
har ry</w>
h all</w>
h air</w>
h ad
had oop</w>
h 7
h7 n9</w>
h 6</w>
h 5</w>
h 2</w>
h 1</w>
gu st</w>
gu ide</w>
gu i</w>
gu est</w>
gu est
guest name</w>
gu c
guc ci</w>
gre en</w>
gre at</w>
gr and</w>
gr ace</w>
gr 2</w>
gor o</w>
gor is</w>
goo g
goog lemsn</w>
goo ds</w>
goo d</w>
go v</w>
go pro</w>
go o</w>
go maji</w>
go happy</w>
go goro</w>
go d</w>
gir ls</w>
gir l</w>
gin al</w>
gi venchy</w>
gi gi</w>
gi f</w>
gi dai
gidai re</w>
ge orge</w>
ge ar</w>
gar tner</w>
gar den</w>
gam ing</w>
gam es</w>
gal lery</w>
gal a
gala xy</w>
g undam</w>
g tx</w>
g t</w>
g sm</w>
g roup</w>
g re</w>
g pu</w>
g ps</w>
g pa</w>
g p</w>
g ory</w>
g olden</w>
g old</w>
g nu</w>
g mt</w>
g mp</w>
g mat</w>
g mail</w>
g m</w>
g lobal</w>
g lass</w>
g l</w>
g ithub</w>
g ital</w>
g it</w>
g is</w>
g host</w>
g g</w>
g ener
gener al</w>
g d</w>
g d
gd p</w>
g c</w>
g bang</w>
g ay</w>
g ary</w>
g ap</w>
g an
gan ji</w>
g ame</w>
g ag
gag a</w>
g 9</w>
g 7</w>
g 6</w>
g 5</w>
g 4g</w>
g 3</w>
g 2</w>
g 20</w>
g 1</w>
frien ds</w>
frien d</w>
fri gidaire</w>
fri day</w>
fran k</w>
fran ce</w>
fran c
franc is</w>
fr m</w>
fr i</w>
fr ame
frame work</w>
for um</w>
for m</w>
for k</w>
for est</w>
for ce</w>
fo undation</w>
fin tech</w>
fin d</w>
fin an
finan ci
financi al</w>
fin al</w>
fi ve</w>
fi t</w>
fi shbase</w>
fi sh</w>
fi rst</w>
fi refox</w>
fi re</w>
fi lm</w>
fi les</w>
fi fa</w>
fi eld</w>
fi ed</w>
fe stival</w>
fe el</w>
fe ed</w>
fe e</w>
fe 2017</w>
fan tasy</w>
fan s</w>
fan dom</w>
faceboo ktwitterpinterestgoogle</w>
faceboo k</w>
fac tory</w>
fa q</w>
fa q1</w>
f x</w>
f uture</w>
f ung</w>
f unction</w>
f un</w>
f ull</w>
f u</w>
f tp</w>
f ter</w>
f sm</w>
f rom</w>
f resh</w>
f ree</w>
f px</w>
f ps</w>
f pga</w>
f p</w>
f ore</w>
f or</w>
f ood</w>
f ont</w>
f ollow</w>
f ocus</w>
f ly</w>
f luke62max</w>
f lickr</w>
f lash</w>
f ks</w>
f ication</w>
f go</w>
f fee</w>
f f
ff et</w>
f er
fer ragamo</w>
f ed</w>
f ed
fed ora</w>
f eb
feb ruary</w>
f da</w>
f c2</w>
f bi</w>
f b</w>
f ast</w>
f as
fas hion</w>
f an</w>
f am
fam ily</w>
f al
fal se</w>
f air
fair mont</w>
f 5</w>
f 4</w>
f 3</w>
f 2</w>
f 16</w>
ex tlink</w>
ex press</w>
ex plorer</w>
ex pedia</w>
ex o</w>
ex hibition</w>
ex e</w>
ex change</w>
ex c
exc el</w>
et today</w>
et relax</w>
et news</w>
et h</w>
et f</w>
et e</w>
et c</w>
et ai
etai ls</w>
et a</w>
er ror</w>
er p</w>
er ic</w>
er ence</w>
er a</w>
eng lish</w>
eng ine</w>
ener gy</w>
en z</w>
en ue</w>
en tertainment</w>
en ter</w>
en d</w>
em o</w>
em ma</w>
em ily</w>
em i</w>
em c</w>
em ba</w>
el se</w>
el ete</w>
el ec
elec tronic</w>
el e
ele ven</w>
edi tor</w>
edi tion</w>
edi t</w>
ed ward</w>
ed ucation</w>
ed u</w>
ed s</w>
ed m</w>
ed ited</w>
ed ge</w>
ed 2k</w>
ec u</w>
ec tivity</w>
ec onomy</w>
ec o</w>
ec lipse</w>
ec k</w>
ec h</w>
ec fa</w>
ec ember</w>
eboo ks</w>
eboo k</w>
eb d</w>
eb ay</w>
eb a</w>
e yes</w>
e ye</w>
e world</w>
e volution</w>
e vernote</w>
e vent</w>
e va</w>
e v</w>
e ur</w>
e sp</w>
e sk</w>
e sc</w>
e q</w>
e pt</w>
e pson</w>
e ps</w>
e os</w>
e in</w>
e ia</w>
e i</w>
e gory</w>
e f</w>
e eworld</w>
e dia</w>
e cho</w>
e asy</w>
e ast</w>
e ar
ear th</w>
e ad</w>
e 88</w>
e 5</w>
e 3</w>
e 2</w>
e 1</w>
du ino</w>
dre w</w>
dre ss</w>
dre am</w>
do wnload</w>
do wn</w>
do uble</w>
do ta</w>
do main</w>
do llars</w>
do i</w>
do g</w>
do com
docom o</w>
do c</w>
do c
doc ker</w>
dis play</w>
dis ney</w>
dis co
disco very</w>
di y</w>
di v</w>
di stribution</w>
di scuz</w>
di or</w>
di gital</w>
di e</w>
di ary</w>
de velopment</w>
de sign</w>
de ep</w>
de ar</w>
de an</w>
day s</w>
day 4</w>
day 3</w>
day 2</w>
day 1</w>
davi s</w>
davi d</w>
dan iel</w>
dan ce</w>
dai ly</w>
d yson</w>
d x</w>
d vd</w>
d v</w>
d t</w>
d sp</w>
d ropbox</w>
d rive</w>
d ram</w>
d ragon</w>
d r</w>
d onald</w>
d ns</w>
d nf</w>
d na</w>
d min</w>
d m</w>
d ll</w>
d lc</w>
d l</w>
d ji</w>
d hl</w>
d ha</w>
d etails</w>
d es</w>
d emo</w>
d ell</w>
d elete</w>
d el</w>
d ecember</w>
d dos</w>
d cs</w>
d ate</w>
d ata</w>
d at
dat ab
datab ase</w>
d as</w>
d ark</w>
d ac</w>
d 5</w>
d 3</w>
d 2</w>
d 1</w>
cur ve</w>
cur ry</w>
cre dit</w>
cre ate</w>
cre am</w>
cre a
crea tive</w>
cooki es</w>
cooki e</w>
cont rol</w>
cont inue</w>
cont extlink</w>
cont ent</w>
cont act</w>
conn ectivity</w>
conn ect</w>
com ™</w>
com pany</w>
com mon</w>
com ments</w>
com ment</w>
com hd</w>
col lege</w>
col ate</w>
co ver</w>
co urse</w>
co upe</w>
co unty</w>
co untry</w>
co unt</w>
co stco</w>
co splay</w>
co s</w>
co pyright</w>
co py</w>
co ol</w>
co ol1</w>
co ok</w>
co m</w>
co lor</w>
co llection</w>
co ffee</w>
co de</w>
co co</w>
co c</w>
co ach</w>
co 2</w>
cl ub</w>
cl ick</w>
cl ai
clai re</w>
ci sco</w>
ci o</w>
cho ice</w>
cho colate</w>
chic ken</w>
chic ago</w>
che ese</w>
char lie</w>
char les</w>
chan nel</w>
chan el</w>
ch urch</w>
ch rome</w>
ch ristian</w>
ch ris</w>
ch inese</w>
ch ina</w>
ch ildren</w>
ch i</w>
ch eck</w>
ch ap
chap ter</w>
ch ang</w>
ch an</w>
centr e</w>
centr al</w>
cen ter</w>
cd n</w>
cd ma</w>
car ol</w>
car lo</w>
can on</w>
can make</w>
can dy</w>
can ada</w>
cam paign</w>
cam p</w>
cam era</w>
cam bridge</w>
ca ke</w>
ca fe</w>
ca fe2017</w>
c y</w>
c x</w>
c v</w>
c ut</w>
c up</w>
c ulture</w>
c tv</w>
c trl</w>
c trip</w>
c to</w>
c st</w>
c ss</w>
c ss3</w>
c rystal</w>
c ry</w>
c rv3000</w>
c ross</w>
c rm</w>
c r</w>
c pu</w>
c pi</w>
c pa</w>
c p</w>
c orporation</w>
c nn</w>
c nc</w>
c n</w>
c ms</w>
c mos</w>
c ma</w>
c loud</w>
c lose</w>
c lient</w>
c le</w>
c lassic</w>
c lass</w>
c l</w>
c j</w>
c ity</w>
c indy</w>
c ia</w>
c g</w>
c fa</w>
c f</w>
c f1</w>
c es</w>
c eo</w>
c ell</w>
c ctv</w>
c cd</w>
c bs</w>
c bd</w>
c bc</w>
c ba</w>
c at
cat egory</w>
c ase</w>
c are</w>
c ar</w>
c ap
cap ital</w>
c an</w>
c am</w>
c all</w>
c al
cal ifornia</w>
c ache</w>
c 9
c9 19</w>
c 5</w>
c 4</w>
c 3</w>
c 1</w>
bu y</w>
bu t</w>
bu siness</w>
bu m</w>
bu ild</w>
bu ffet</w>
bu ff</w>
bro wn</w>
bri an</w>
br uce</w>
br and</w>
br and
brand t</w>
boo t</w>
boo st</w>
boo ks</w>
boo king</w>
bo y</w>
bo t</w>
bo ss</w>
bo dy</w>
bo b</w>
bo ard</w>
blog title</w>
blog this</w>
blog spot</w>
blog ger</w>
blog fp</w>
blog ab
blogab stract</w>
bl ue</w>
bl ack</w>
bi rd</w>
bi m</w>
bi ll</w>
bi gbang</w>
bi g</w>
be yond</w>
be st</w>
be fore</w>
be aut
beaut y</w>
be au
beau tiful</w>
be ar</w>
be an</w>
be ach</w>
be 2</w>
ban ner</w>
ban k</w>
b2 c</w>
b2 b</w>
b ytes</w>
b ye</w>
b wl</w>
b utler</w>
b us</w>
b urberry</w>
b t</w>
b reak</w>
b rake</w>
b r</w>
b q</w>
b ps</w>
b p</w>
b onnie</w>
b o</w>
b nb</w>
b mw</w>
b loomberg</w>
b log</w>
b lock</w>
b it</w>
b ios</w>
b ing</w>
b in</w>
b h</w>
b eta</w>
b enz</w>
b en</w>
b elle</w>
b ella</w>
b ell</w>
b bs</w>
b bq</w>
b be</w>
b bc</w>
b b</w>
b ay</w>
b at</w>
b at
bat tle</w>
b as</w>
b as
bas ic</w>
b ar</w>
b and</w>
b all</w>
b al
bal an
balan ce</w>
b ai
bai du</w>
b ag</w>
b ad</w>
b ack</w>
b aby</w>
b 6</w>
b 5</w>
b 2</w>
b 1</w>
b 12</w>
az ure</w>
avi ra</w>
av i</w>
av enue</w>
aut o</w>
aut hor</w>
au tocad</w>
au gust</w>
au dio</w>
au di</w>
at p</w>
at m</w>
at ch</w>
as us</w>
as sociation</w>
as r</w>
as px</w>
as p</w>
as ics</w>
as ia</w>
artic les</w>
artic le</w>
arch ives</w>
arch ive</w>
ar u</w>
ar ts</w>
ar pg</w>
ar mani</w>
ar m</w>
ar ea</w>
ar duino</w>
ap t</w>
ap ril</w>
ap ps</w>
ap pqq</w>
ap plication</w>
ap ple</w>
ap k</w>
ap i</w>
ap hojoy</w>
ap h</w>
ap ec</w>
ap ache</w>
angel ab
angelab aby</w>
angel a</w>
ang el</w>
and roid</w>
an ti</w>
an thony</w>
an nie</w>
an ne</w>
an na</w>
an k</w>
an dy</w>
an drew</w>
an der</w>
an al
anal ytics</w>
an a</w>
amer ican</w>
amer ica</w>
am y</w>
am oled</w>
am g</w>
am d</w>
am ana</w>
am 09</w>
alph ago</w>
alph a</w>
alex ander</w>
alex a</w>
al t</w>
al so</w>
al len</w>
al ker</w>
al ity</w>
al ice</w>
al ex</w>
al bum</w>
al an</w>
air port</w>
air mail</w>
air bnb</w>
ag oda</w>
ag ent</w>
ag ain</w>
adi das</w>
ad vanced</w>
ad sl</w>
ad sense</w>
ad s</w>
ad obe</w>
ad min</w>
ad i</w>
ad dress</w>
ad d</w>
ad choice</w>
ad c</w>
ad am</w>
ac tive</w>
ac tion</w>
ac g</w>
ac er</w>
ac ebook</w>
ac cess</w>
ac ca</w>
ab s</w>
ab out</w>
ab c</w>
a ws</w>
a wards</w>
a ward</w>
a v</w>
a u</w>
a tom</w>
a mazon</w>
a ke</w>
a kb48</w>
a jax</w>
a fter</w>
a f</w>
a e</w>
a aa</w>
a 9</w>
a 8</w>
a 7</w>
a 6</w>
a 5</w>
a 4</w>
a 3</w>
a 2</w>
a 1</w>
[unused9 ]</w>
[unused9 9]</w>
[unused9 8]</w>
[unused9 7]</w>
[unused9 6]</w>
[unused9 5]</w>
[unused9 4]</w>
[unused9 3]</w>
[unused9 2]</w>
[unused9 1]</w>
[unused9 0]</w>
[unused8 ]</w>
[unused8 9]</w>
[unused8 8]</w>
[unused8 7]</w>
[unused8 6]</w>
[unused8 5]</w>
[unused8 4]</w>
[unused8 3]</w>
[unused8 2]</w>
[unused8 1]</w>
[unused8 0]</w>
[unused7 ]</w>
[unused7 9]</w>
[unused7 8]</w>
[unused7 7]</w>
[unused7 6]</w>
[unused7 5]</w>
[unused7 4]</w>
[unused7 3]</w>
[unused7 2]</w>
[unused7 1]</w>
[unused7 0]</w>
[unused6 ]</w>
[unused6 9]</w>
[unused6 8]</w>
[unused6 7]</w>
[unused6 6]</w>
[unused6 5]</w>
[unused6 4]</w>
[unused6 3]</w>
[unused6 2]</w>
[unused6 1]</w>
[unused6 0]</w>
[unused5 ]</w>
[unused5 9]</w>
[unused5 8]</w>
[unused5 7]</w>
[unused5 6]</w>
[unused5 5]</w>
[unused5 4]</w>
[unused5 3]</w>
[unused5 2]</w>
[unused5 1]</w>
[unused4 ]</w>
[unused4 9]</w>
[unused4 8]</w>
[unused4 7]</w>
[unused4 6]</w>
[unused4 5]</w>
[unused4 4]</w>
[unused4 3]</w>
[unused4 2]</w>
[unused4 1]</w>
[unused 50
[unused50 ]</w>
[unused 40
[unused40 ]</w>
[unused 3]</w>
[unused 39
[unused39 ]</w>
[unused 38
[unused38 ]</w>
[unused 37
[unused37 ]</w>
[unused 36
[unused36 ]</w>
[unused 35
[unused35 ]</w>
[unused 34
[unused34 ]</w>
[unused 33
[unused33 ]</w>
[unused 32
[unused32 ]</w>
[unused 30
[unused30 ]</w>
[unused 3
[unused3 1]</w>
[unused 2]</w>
[unused 29
[unused29 ]</w>
[unused 28
[unused28 ]</w>
[unused 27
[unused27 ]</w>
[unused 26
[unused26 ]</w>
[unused 25
[unused25 ]</w>
[unused 24
[unused24 ]</w>
[unused 23
[unused23 ]</w>
[unused 22
[unused22 ]</w>
[unused 20
[unused20 ]</w>
[unused 2
[unused2 1]</w>
[unused 1]</w>
[unused 19
[unused19 ]</w>
[unused 18
[unused18 ]</w>
[unused 17
[unused17 ]</w>
[unused 16
[unused16 ]</w>
[unused 15
[unused15 ]</w>
[unused 14
[unused14 ]</w>
[unused 13
[unused13 ]</w>
[unused 12
[unused12 ]</w>
[unused 10
[unused10 ]</w>
[unused 1
[unused1 1]</w>
[ U
[U N
[UN K]</w>
[ S
[S E
[SE P
[SEP ]</w>
[ P
[P A
[PA D
[PAD ]</w>
[ M
[M A
[MA S
[MAS K]</w>
[ C
[C L
[CL S
[CLS ]</w>
T ></w>
S ></w>
< T></w>
< S></w>
91 tv</w>
91 34
9134 59</w>
9 b</w>
9 99</w>
9 98</w>
9 985</w>
9 91</w>
9 90</w>
9 80</w>
9 78</w>
9 70</w>
9 6</w>
9 60</w>
9 6
96 78</w>
9 595</w>
9 50</w>
9 4</w>
9 3</w>
9 30</w>
9 2</w>
9 25</w>
9 21</w>
9 20</w>
9 11</w>
9 10</w>
9 00</w>
9 000</w>
85 91</w>
85 2</w>
83 8</w>
83 5</w>
80 p</w>
80 2</w>
8 mm</w>
8 k</w>
8 g</w>
8 cm</w>
8 99</w>
8 97</w>
8 91</w>
8 90</w>
8 891</w>
8 88</w>
8 86</w>
8 80</w>
8 7</w>
8 70</w>
8 67</w>
8 66</w>
8 63</w>
8 60</w>
8 55</w>
8 50</w>
8 40</w>
8 3</w>
8 30</w>
8 28</w>
8 20</w>
8 1</w>
8 18</w>
8 16</w>
8 14</w>
8 10</w>
8 01</w>
8 000</w>
78 910</w>
78 7</w>
78 66</w>
7 x24</w>
7 headlines</w>
7 9</w>
7 98</w>
7 90</w>
7 80</w>
7 77</w>
7 70</w>
7 6</w>
7 68</w>
7 60</w>
7 50</w>
7 500</w>
7 4</w>
7 47</w>
7 40</w>
7 3</w>
7 37</w>
7 30</w>
7 2</w>
7 20</w>
7 20
720 p</w>
7 11</w>
7 10</w>
7 09</w>
7 05</w>
7 01</w>
7 00</w>
7 000</w>
64 ㎡</w>
64 gb</w>
62 6</w>
60 6</w>
60 3</w>
6 s</w>
6 p</w>
6 m</w>
6 l</w>
6 gb</w>
6 g</w>
6 a</w>
6 9</w>
6 99</w>
6 991</w>
6 90</w>
6 88</w>
6 80</w>
6 78910</w>
6 70</w>
6 66</w>
6 61</w>
6 60</w>
6 606</w>
6 50</w>
6 500</w>
6 4</w>
6 40</w>
6 30</w>
6 2</w>
6 25</w>
6 221</w>
6 20</w>
6 18</w>
6 16</w>
6 11</w>
6 10</w>
6 01</w>
6 000</w>
57 57</w>
57 30
5730 32
573032 185</w>
53 9</w>
53 6</w>
52 sykb</w>
52 kb</w>
52 5</w>
52 2</w>
52 1</w>
500 ml</w>
500 g</w>
500 00</w>
50 mm</w>
50 ml</w>
50 g</w>
50 cm</w>
50 8</w>
50 6</w>
50 5</w>
50 58</w>
50 4</w>
50 3</w>
50 2</w>
50 1</w>
5 ℃</w>
5 v</w>
5 t</w>
5 s</w>
5 mm</w>
5 m</w>
5 l</w>
5 kg</w>
5 k</w>
5 g</w>
5 d</w>
5 cm</w>
5 c</w>
5 a</w>
5 99</w>
5 91</w>
5 90</w>
5 88</w>
5 80</w>
5 70</w>
5 678910</w>
5 60</w>
5 55</w>
5 50</w>
5 500</w>
5 4</w>
5 43</w>
5 40</w>
5 3</w>
5 30</w>
5 2</w>
5 20</w>
5 1</w>
5 18</w>
5 16</w>
5 15</w>
5 13</w>
5 12</w>
5 11</w>
5 10</w>
45 ㎡2</w>
45 8</w>
45 7</w>
45 6</w>
45 5</w>
45 3</w>
45 1</w>
45 00</w>
44 8</w>
44 5</w>
44 4</w>
44 2</w>
44 1</w>
43 99</w>
43 8</w>
43 5</w>
43 3</w>
43 2</w>
42 9</w>
42 8</w>
42 7</w>
42 6</w>
42 5</w>
42 2</w>
42 1</w>
42 00</w>
40 9</w>
40 8</w>
40 7</w>
40 6</w>
40 66</w>
40 5</w>
40 4</w>
40 3</w>
40 2</w>
40 1</w>
40 00</w>
4 s</w>
4 m</w>
4 l</w>
4 k</w>
4 gb</w>
4 d</w>
4 a</w>
4 9</w>
4 99</w>
4 98</w>
4 95</w>
4 90</w>
4 88</w>
4 86</w>
4 85</w>
4 80</w>
4 800</w>
4 75</w>
4 70</w>
4 6</w>
4 68</w>
4 65</w>
4 60</w>
4 600</w>
4 5</w>
4 50</w>
4 4</w>
4 40</w>
4 30</w>
4 2</w>
4 20</w>
4 1</w>
4 19</w>
4 18</w>
4 17</w>
4 16</w>
4 15</w>
4 14</w>
4 13</w>
4 12</w>
4 11</w>
4 10</w>
4 00</w>
39 8</w>
39 7</w>
39 6</w>
39 5</w>
39 4</w>
39 3</w>
39 2</w>
39 1</w>
38 9</w>
38 7</w>
38 6</w>
38 5</w>
38 4</w>
38 3</w>
38 2</w>
38 1</w>
38 00</w>
37 9</w>
37 8</w>
37 7</w>
37 6</w>
37 5</w>
37 4</w>
37 3</w>
37 2</w>
37 1</w>
36 9</w>
36 8</w>
36 7</w>
36 6</w>
36 5</w>
36 4</w>
36 3</w>
36 2</w>
36 1</w>
36 00</w>
36 0
360 °</w>
35 9</w>
35 8</w>
35 7</w>
35 6</w>
35 5</w>
35 4</w>
35 3</w>
35 2</w>
35 1</w>
35 00</w>
34 e</w>
34 9</w>
34 8</w>
34 7</w>
34 6</w>
34 4</w>
34 3</w>
34 2</w>
34 1</w>
34 00</w>
33 9</w>
33 8</w>
33 7</w>
33 6</w>
33 5</w>
33 4</w>
33 3</w>
33 2</w>
33 1</w>
33 0</w>
33 00</w>
32 gb</w>
32 g</w>
32 9</w>
32 8</w>
32 7</w>
32 6</w>
32 5</w>
32 4</w>
32 3</w>
32 2</w>
32 1</w>
32 00</w>
30 ml</w>
30 g</w>
30 cm</w>
30 9b</w>
30 9</w>
30 8</w>
30 7</w>
30 5</w>
30 4</w>
30 3</w>
30 2</w>
30 1</w>
3 ～5</w>
3 ～4</w>
3 t</w>
3 s</w>
3 p</w>
3 mm</w>
3 m</w>
3 kg</w>
3 g</w>
3 ds</w>
3 d</w>
3 ce</w>
3 a</w>
3 9</w>
3 99</w>
3 90</w>
3 8</w>
3 88</w>
3 80</w>
3 70</w>
3 6</w>
3 60</w>
3 5</w>
3 50</w>
3 3</w>
3 2</w>
3 20</w>
3 1</w>
3 19</w>
3 18</w>
3 17</w>
3 16</w>
3 15</w>
3 14</w>
3 13</w>
3 12</w>
3 11</w>
3 10</w>
3 100</w>
3 00</w>
3 00
300 00</w>
29 8</w>
29 7</w>
29 6</w>
29 5</w>
29 4</w>
29 3</w>
29 2</w>
29 1</w>
29 00</w>
28 9</w>
28 8</w>
28 7</w>
28 6</w>
28 5</w>
28 4</w>
28 3</w>
28 2</w>
28 1</w>
28 00</w>
27 9</w>
27 8</w>
27 7</w>
27 6</w>
27 65</w>
27 5</w>
27 56</w>
27 4</w>
27 3</w>
27 2</w>
27 1</w>
27 00</w>
26 9</w>
26 8</w>
26 7</w>
26 6</w>
26 5</w>
26 4</w>
26 3</w>
26 2</w>
26 1</w>
26 00</w>
25 9</w>
25 8</w>
25 7</w>
25 6</w>
25 5</w>
25 4</w>
25 3</w>
25 2</w>
25 1</w>
25 00</w>
24 h</w>
24 9</w>
24 8</w>
24 7</w>
24 6</w>
24 5</w>
24 4</w>
24 3</w>
24 2</w>
24 1</w>
24 0</w>
24 00</w>
23 9</w>
23 8</w>
23 7</w>
23 6</w>
23 5</w>
23 4</w>
23 3</w>
23 2</w>
23 1</w>
23 0</w>
23 00</w>
22 9</w>
22 8</w>
22 7</w>
22 6</w>
22 5</w>
22 4</w>
22 3</w>
22 2</w>
22 00</w>
201 9</w>
201 8</w>
201 5</w>
201 4</w>
201 3</w>
201 2</w>
201 1</w>
200 mm</w>
200 9</w>
200 8</w>
200 7</w>
200 6</w>
200 5</w>
200 4</w>
200 3</w>
200 2</w>
200 1</w>
200 00</w>
20 ℃</w>
20 mm</w>
20 g</w>
20 cm</w>
20 9</w>
20 8</w>
20 7</w>
20 6</w>
20 5</w>
20 50</w>
20 4</w>
20 3</w>
20 30</w>
20 2</w>
20 25</w>
20 22</w>
20 21</w>
20 20</w>
20 1</w>
2 ～3</w>
2 mm</w>
2 m</w>
2 l</w>
2 gb</w>
2 g</w>
2 d</w>
2 cm</w>
2 b</w>
2 a</w>
2 9</w>
2 99</w>
2 90</w>
2 80</w>
2 7</w>
2 70</w>
2 6</w>
2 60</w>
2 50</w>
2 5000</w>
2 3</w>
2 345</w>
2 20</w>
2 19</w>
2 18</w>
2 17</w>
2 16</w>
2 15</w>
2 14</w>
2 13</w>
2 12</w>
2 11</w>
2 10</w>
2 100</w>
2 00</w>
199 8</w>
199 7</w>
199 6</w>
199 5</w>
199 4</w>
199 3</w>
199 2</w>
199 1</w>
198 9</w>
198 7</w>
198 6</w>
198 5</w>
198 4</w>
198 3</w>
198 2</w>
198 1</w>
197 9</w>
197 8</w>
197 7</w>
197 6</w>
197 5</w>
197 4</w>
197 3</w>
197 2</w>
197 1</w>
196 9</w>
196 8</w>
196 7</w>
196 6</w>
196 5</w>
196 4</w>
196 3</w>
196 2</w>
196 1</w>
195 9</w>
195 8</w>
195 7</w>
195 6</w>
195 5</w>
195 4</w>
195 3</w>
195 2</w>
195 1</w>
194 9</w>
194 8</w>
194 7</w>
194 6</w>
194 5</w>
194 4</w>
194 3</w>
194 2</w>
194 1</w>
194 0</w>
193 9</w>
193 8</w>
193 7</w>
193 6</w>
193 5</w>
193 4</w>
193 3</w>
193 2</w>
193 1</w>
193 0</w>
192 9</w>
192 8</w>
192 7</w>
192 6</w>
192 5</w>
192 4</w>
192 3</w>
192 2</w>
192 1</w>
190 9</w>
190 8</w>
190 7</w>
190 6</w>
190 5</w>
190 4</w>
190 3</w>
190 2</w>
190 1</w>
19 9</w>
19 99</w>
19 90</w>
19 8</w>
19 88</w>
19 80</w>
19 7</w>
19 70</w>
19 6</w>
19 60</w>
19 5</w>
19 50</w>
19 4</w>
19 3</w>
19 2</w>
19 20</w>
19 1</w>
19 19</w>
19 18</w>
19 17</w>
19 16</w>
19 15</w>
19 14</w>
19 13</w>
19 12</w>
19 11</w>
19 10</w>
19 0</w>
19 00</w>
189 8</w>
189 7</w>
189 6</w>
189 5</w>
189 4</w>
189 3</w>
18 k</w>
18 9</w>
18 99</w>
18 90</w>
18 8</w>
18 89</w>
18 88</w>
18 86</w>
18 85</w>
18 84</w>
18 82</w>
18 80</w>
18 7</w>
18 71</w>
18 70</w>
18 6</w>
18 68</w>
18 67</w>
18 60</w>
18 50</w>
18 4</w>
18 40</w>
18 3</w>
18 2</w>
18 1</w>
18 0</w>
18 00</w>
18 000</w>
17 life</w>
17 9</w>
17 8</w>
17 7</w>
17 6</w>
17 5</w>
17 4</w>
17 3</w>
17 2</w>
17 1</w>
17 00</w>
16 gb</w>
16 g</w>
16 9</w>
16 8</w>
16 7</w>
16 6</w>
16 5</w>
16 4</w>
16 3</w>
16 2</w>
16 1</w>
16 0</w>
16 00</w>
15 g</w>
15 9</w>
15 8</w>
15 7</w>
15 6</w>
15 5</w>
15 4</w>
15 3</w>
15 2</w>
15 1</w>
15 00</w>
14 k</w>
14 9</w>
14 8</w>
14 7</w>
14 6</w>
14 5</w>
14 4</w>
14 3</w>
14 2</w>
14 1</w>
14 0</w>
14 00</w>
13 9</w>
13 913459</w>
13 8</w>
13 89</w>
13 7</w>
13 6</w>
13 5</w>
13 50</w>
13 4</w>
13 3</w>
13 2</w>
13 1</w>
13 0</w>
13 00</w>
1234 56</w>
1234 5678910</w>
12 9</w>
12 8gb</w>
12 8</w>
12 80</w>
12 7</w>
12 6</w>
12 5</w>
12 50</w>
12 4</w>
12 34</w>
12 345</w>
12 306</w>
12 2</w>
12 1</w>
12 00</w>
100 ml</w>
100 m</w>
100 km</w>
100 g</w>
100 1</w>
100 00</w>
10 ℃</w>
10 g</w>
10 9</w>
10 8</w>
10 80p</w>
10 80</w>
10 7</w>
10 6</w>
10 5</w>
10 4</w>
10 3</w>
10 2</w>
10 24</w>
10 20</w>
10 10</w>
10 1
101 vip</w>
1 ～2</w>
1 v</w>
1 tb</w>
1 mdb</w>
1 m</w>
1 gb</w>
1 g</w>
1 b</w>
1 a</w>
1 70</w>
1 5058</w>
1 5000</w>
1 2000</w>
1 19</w>
1 18</w>
1 17</w>
1 16</w>
1 15</w>
1 14</w>
1 13</w>
1 12</w>
1 111</w>
1 100</w>
07 5</w>
07 55</w>
07 4</w>
07 3</w>
02 9</w>
02 8</w>
02 7</w>
02 5</w>
02 4</w>
02 3</w>
02 2</w>
02 1</w>
00 ㎡</w>
00 ㎡1</w>
00 z</w>
00 kg</w>
00 8</w>
00 6</w>
00 5</w>
00 4</w>
00 3</w>
00 2</w>
00 20</w>
0 t</w>
0 mm</w>
0 l</w>
0 fork</w>
0 8</w>
0 80</w>
0 800</w>
0 7</w>
0 6</w>
0 61</w>
0 55</w>
0 50</w>
0 4</w>
0 3</w>
0 2</w>
0 20</w>
0 19</w>
0 15</w>
0 13</w>
0 12</w>
0 11</w>
0 10</w>
. .</w>
. ..</w>
##～ 8</w>
##～ 7</w>
##～ 6</w>
##～ 5</w>
##～ 3</w>
##～ 20</w>
##～ 1</w>
##～ 17</w>
##～ 10</w>
##ー ン</w>
##ー ルを</w>
##ー ル</w>
##ー ム</w>
##ー ト</w>
##ー タ</w>
##ー ス</w>
##ー ション</w>
##ー シてす</w>
##ー シ</w>
##ー ク</w>
##ン ト</w>
##ン ター</w>
##ン ス</w>
##ン ク</w>
##ル フ</w>
##ル ハイト</w>
##リ ー</w>
##リ ア</w>
##テ ル</w>
##テ ィー</w>
##ッ フ</w>
##ッ ト</w>
##ッ セーシを</w>
##ッ ク</w>
##ク セス</w>
##ク ok</w>
##イ ン</w>
##イ フ</w>
##イ ス</w>
##れ る</w>
##れ ます</w>
##れ は</w>
##れ ている</w>
##れ て</w>
##れ た</w>
##よう に</w>
##よう な</w>
##よ り</w>
##よ って</w>
##よ う</w>
##ませ んか</w>
##ませ ん</w>
##ま て</w>
##ま た</w>
##ま すのて</w>
##ま しょう</w>
##ま した</w>
##の は</w>
##の に</w>
##の てすか</w>
##の てす</w>
##の て</w>
##の か</w>
##の お</w>
##な る</w>
##な ります</w>
##な りました</w>
##な り</w>
##な ら</w>
##な と</w>
##な った</w>
##な たの</w>
##な く</w>
##な から</w>
##な い</w>
##と は</w>
##と の</w>
##と ても</w>
##と う</w>
##と いう</w>
##てき る</w>
##てき ます</w>
##て も</w>
##て は</w>
##て の</w>
##て すか</w>
##て す</w>
##て お</w>
##ち は</w>
##ち の</w>
##た めに</w>
##た め</w>
##た けて</w>
##た い</w>
##こと を</w>
##こと て</w>
##こと かてきます</w>
##こと か</w>
##こ の</w>
##こ と</w>
##こ さいます</w>
##け る</w>
##け と</w>
##け て</w>
##き ます</w>
##き ました</w>
##き た</w>
##か る</w>
##か り</w>
##か ら</w>
##か も</w>
##か な</w>
##か った</w>
##か あります</w>
##い るのて</w>
##い る</w>
##い ます</w>
##い ました</w>
##い て</w>
##い た</w>
##い い</w>
##あ る</w>
##あ りません</w>
##あ ります</w>
##あ り</w>
##あ なたに</w>
##z zi</w>
##z z</w>
##z y</w>
##z u</w>
##z one</w>
##z on</w>
##z o</w>
##z l</w>
##z i</w>
##z er</w>
##z en</w>
##z e</w>
##z a</w>
##y y</w>
##y u</w>
##y s</w>
##y ou</w>
##y o</w>
##y n</w>
##y m</w>
##y i</w>
##y er</w>
##y e</w>
##y an</w>
##y a</w>
##x y</w>
##x xx</w>
##x x</w>
##x ure</w>
##x t</w>
##x p</w>
##x on</w>
##x i</w>
##x 5</w>
##x 2</w>
##wor ld</w>
##wor ks</w>
##wor k</w>
##wor d</w>
##w ww</w>
##w u</w>
##w t</w>
##w s</w>
##w ood</w>
##w o</w>
##w n</w>
##w ing</w>
##w in</w>
##w i</w>
##w f</w>
##w est</w>
##w er</w>
##w en</w>
##w ell</w>
##w ei</w>
##w eb</w>
##w e</w>
##w d</w>
##w ays</w>
##w ay</w>
##w atch</w>
##w are</w>
##w ard</w>
##w ang</w>
##w an</w>
##w alker</w>
##w alk</w>
##w a</w>
##vi s</w>
##vi lle</w>
##vi ew</w>
##vi c</w>
##vi a</w>
##ver tisement</w>
##ver se</w>
##v y</w>
##v s</w>
##v r</w>
##v o</w>
##v m</w>
##v ing</w>
##v in</w>
##v ice</w>
##v i</w>
##v g</w>
##v es</w>
##v er</w>
##v en</w>
##v el</w>
##v ed</w>
##v e</w>
##v d</w>
##v c</w>
##v as</w>
##v an</w>
##v al</w>
##v a</w>
##v 4</w>
##ur t</w>
##ur s</w>
##ur n</w>
##ur l</w>
##ur g</w>
##un ge</w>
##un ch</w>
##u y</w>
##u x</w>
##u te</w>
##u t</w>
##u st</w>
##u sh</w>
##u se</w>
##u s</w>
##u ry</w>
##u re</w>
##u ra</w>
##u r</w>
##u p</w>
##u o</w>
##u n</w>
##u ment</w>
##u me</w>
##u ma</w>
##u m</w>
##u lt</w>
##u ll</w>
##u le</w>
##u lar</w>
##u la</w>
##u l</w>
##u k</w>
##u id</w>
##u i</w>
##u gh</w>
##u g</w>
##u el</w>
##u e</w>
##u de</w>
##u d</w>
##u ck</w>
##u ch</w>
##u ce</w>
##u c</w>
##u be</w>
##u b</w>
##u ard</w>
##u an</w>
##u ality</w>
##u al</w>
##u a</w>
##ti ve</w>
##ti ons</w>
##ti onal</w>
##ti on</w>
##ti mes</w>
##ti me</w>
##ti es</w>
##ti er</w>
##t z</w>
##t ype</w>
##t y</w>
##t witter</w>
##t w</w>
##t v</w>
##t us</w>
##t ure</w>
##t u</w>
##t ty</w>
##t ton</w>
##t to</w>
##t ti</w>
##t ter</w>
##t te</w>
##t ta</w>
##t t</w>
##t su</w>
##t s</w>
##t ry</w>
##t ro</w>
##t rix</w>
##t ra</w>
##t r</w>
##t p</w>
##t own</w>
##t os</w>
##t ory</w>
##t ors</w>
##t ore</w>
##t or</w>
##t op</w>
##t one</w>
##t on</w>
##t om</w>
##t o</w>
##t ment</w>
##t m</w>
##t le</w>
##t l</w>
##t is</w>
##t ings</w>
##t ing</w>
##t ina</w>
##t in</w>
##t ics</w>
##t ical</w>
##t ic</w>
##t i</w>
##t hing</w>
##t her</w>
##t he</w>
##t h</w>
##t f</w>
##t ext</w>
##t est</w>
##t es</w>
##t ers</w>
##t er</w>
##t en</w>
##t el</w>
##t ein</w>
##t ee</w>
##t ed</w>
##t ech</w>
##t e</w>
##t ch</w>
##t c</w>
##t b</w>
##t ax</w>
##t ation</w>
##t ar</w>
##t ant</w>
##t an</w>
##t alk</w>
##t al</w>
##t ail</w>
##t ags</w>
##t ag</w>
##t able</w>
##t a</w>
##t 00</w>
##st yle</w>
##st ry</w>
##st ro</w>
##st one</w>
##st on</w>
##st le</w>
##st in</w>
##st er</w>
##st e</w>
##st ar</w>
##st ack</w>
##st a</w>
##sh ine</w>
##sh i</w>
##sh are</w>
##sh a</w>
##se t</w>
##se s</w>
##se r</w>
##se nt</w>
##se n</w>
##se lf</w>
##s y</w>
##s un</w>
##s ue</w>
##s u</w>
##s t</w>
##s son</w>
##s sion</w>
##s se</w>
##s s</w>
##s pace</w>
##s p</w>
##s on</w>
##s ol</w>
##s o</w>
##s n</w>
##s m</w>
##s l</w>
##s ky</w>
##s kip</w>
##s k</w>
##s ite</w>
##s it</w>
##s is</w>
##s ion</w>
##s io</w>
##s ide</w>
##s ia</w>
##s i</w>
##s hot</w>
##s hop</w>
##s hip</w>
##s h</w>
##s e</w>
##s day</w>
##s d</w>
##s co</w>
##s ch</w>
##s c</w>
##s an</w>
##s aid</w>
##s a</w>
##ri x</w>
##ri p</w>
##ri o</w>
##ri ght</w>
##ri es</w>
##ri e</w>
##ri d</w>
##ri an</w>
##ri al</w>
##re x</w>
##re ss</w>
##re en</w>
##re e</w>
##re am</w>
##re ad</w>
##re a</w>
##r y</w>
##r us</w>
##r um</w>
##r u</w>
##r th</w>
##r tex</w>
##r t</w>
##r ss</w>
##r s</w>
##r ry</w>
##r ris</w>
##r r</w>
##r p</w>
##r ow</w>
##r os</w>
##r oom</w>
##r on</w>
##r o</w>
##r ner</w>
##r n</w>
##r min</w>
##r mb</w>
##r man</w>
##r ma</w>
##r m</w>
##r ley</w>
##r l</w>
##r k</w>
##r ity</w>
##r ite</w>
##r is</w>
##r ing</w>
##r in</w>
##r ic</w>
##r ia</w>
##r i</w>
##r ge</w>
##r f</w>
##r ey</w>
##r es</w>
##r ent</w>
##r ence</w>
##r en</w>
##r ed</w>
##r ect</w>
##r e</w>
##r don</w>
##r der</w>
##r d</w>
##r cle</w>
##r c</w>
##r ay</w>
##r ation</w>
##r aph</w>
##r ap</w>
##r ant</w>
##r an</w>
##r ame</w>
##r am</w>
##r al</w>
##r ain</w>
##r ail</w>
##r ade</w>
##r a</w>
##r 4</w>
##r 3</w>
##po sted</w>
##po st</w>
##po int</w>
##po ds</w>
##pl us</w>
##pl ay</w>
##p y</w>
##p x</w>
##p ut</w>
##p us</w>
##p ublic</w>
##p u</w>
##p t</w>
##p s</w>
##p ro</w>
##p rice</w>
##p ress</w>
##p r</w>
##p py</w>
##p per</w>
##p p</w>
##p ort</w>
##p op</w>
##p o</w>
##p n</w>
##p mlast</w>
##p m</w>
##p le</w>
##p l</w>
##p ing</w>
##p in</w>
##p i</w>
##p h</w>
##p er</w>
##p e</w>
##p d</w>
##p c</w>
##p ass</w>
##p an</w>
##p age</w>
##p ad</w>
##p act</w>
##p a</w>
##or s</w>
##or m</w>
##or ies</w>
##or age</w>
##or a</w>
##on sored</w>
##on s</w>
##on d</w>
##on a</w>
##o z</w>
##o y</w>
##o x</w>
##o wn</w>
##o w</w>
##o ver</w>
##o va</w>
##o v</w>
##o ut</w>
##o us</w>
##o ur</w>
##o und</w>
##o uld</w>
##o ugh</w>
##o ud</w>
##o u</w>
##o to</w>
##o ther</w>
##o t</w>
##o st</w>
##o se</w>
##o sa</w>
##o s</w>
##o r</w>
##o per</w>
##o pe</w>
##o p</w>
##o ot</w>
##o on</w>
##o ol</w>
##o ok</w>
##o od</w>
##o o</w>
##o me</w>
##o man</w>
##o m</w>
##o logy</w>
##o la</w>
##o l</w>
##o ka</w>
##o k</w>
##o id</w>
##o i</w>
##o h</w>
##o g</w>
##o f</w>
##o e</w>
##o de</w>
##o d</w>
##o ck</w>
##o c</w>
##o b</w>
##o a</w>
##o 2</w>
##no te</w>
##no me</w>
##n y</w>
##n us</w>
##n ts</w>
##n ter</w>
##n t</w>
##n sis</w>
##n se</w>
##n s</w>
##n p</w>
##n ow</w>
##n os</w>
##n or</w>
##n o</w>
##n ny</w>
##n nis</w>
##n ne</w>
##n n</w>
##n m</w>
##n k</w>
##n ix</w>
##n ity</w>
##n is</w>
##n ing</w>
##n ight</w>
##n ie</w>
##n ic</w>
##n ia</w>
##n i</w>
##n ger</w>
##n ge</w>
##n g</w>
##n ey</w>
##n ext</w>
##n ews</w>
##n ew</w>
##n et</w>
##n ess</w>
##n es</w>
##n ers</w>
##n er</w>
##n el</w>
##n e</w>
##n dy</w>
##n di</w>
##n der</w>
##n da</w>
##n d</w>
##n cy</w>
##n ch</w>
##n ce</w>
##n c</w>
##n ba</w>
##n ar</w>
##n ap</w>
##n an</w>
##n ame</w>
##n a</w>
##n 2</w>
##n 1</w>
##mo on</w>
##mo bile</w>
##ma y</w>
##ma x</w>
##ma te</w>
##ma ster</w>
##ma r</w>
##ma p</w>
##ma n</w>
##ma ll</w>
##ma il</w>
##ma h</w>
##m y</w>
##m w</w>
##m v</w>
##m us</w>
##m u</w>
##m s</w>
##m porary</w>
##m ple</w>
##m p</w>
##m ore</w>
##m ond</w>
##m on</w>
##m o</w>
##m n</w>
##m my</w>
##m ma</w>
##m m</w>
##m ll</w>
##m l</w>
##m ix</w>
##m it</w>
##m ini</w>
##m ing</w>
##m ine</w>
##m in</w>
##m ic</w>
##m i</w>
##m hz</w>
##m g</w>
##m es</w>
##m er</w>
##m ents</w>
##m ent</w>
##m en</w>
##m edia</w>
##m ed</w>
##m e</w>
##m d</w>
##m c</w>
##m bps</w>
##m ber</w>
##m b</w>
##m ark</w>
##m ann</w>
##m and</w>
##m a</w>
##m 2</w>
##lo w</w>
##lo ve</w>
##lo t</w>
##lo r</w>
##lo gy</w>
##lo g</w>
##lo ck</w>
##lo ad</w>
##ll ing</w>
##ll i</w>
##ll er</w>
##lin k</w>
##lin es</w>
##li ve</w>
##li st</w>
##li sh</w>
##li o</w>
##li ght</w>
##li fe</w>
##li e</w>
##l y</w>
##l vin</w>
##l v</w>
##l ux</w>
##l ution</w>
##l us</w>
##l u</w>
##l ts</w>
##l ton</w>
##l ter</w>
##l t</w>
##l s</w>
##l r</w>
##l p</w>
##l one</w>
##l on</w>
##l o</w>
##l mer</w>
##l m</w>
##l ly</w>
##l ls</w>
##l low</w>
##l lo</w>
##l le</w>
##l la</w>
##l l</w>
##l k</w>
##l is</w>
##l ing</w>
##l ine</w>
##l ina</w>
##l in</w>
##l ic</w>
##l ia</w>
##l i</w>
##l f</w>
##l ey</w>
##l ex</w>
##l et</w>
##l ess</w>
##l es</w>
##l er</w>
##l ent</w>
##l en</w>
##l ee</w>
##l ed</w>
##l ean</w>
##l e</w>
##l d</w>
##l c</w>
##l ay</w>
##l ax</w>
##l ate</w>
##l ast</w>
##l as</w>
##l ar</w>
##l and</w>
##l an</w>
##l am</w>
##l ace</w>
##l abels</w>
##l ab</w>
##l a</w>
##k y</w>
##k w</w>
##k v</w>
##k u</w>
##k s</w>
##k o</w>
##k m</w>
##k k</w>
##k it</w>
##k ins</w>
##k ing</w>
##k in</w>
##k i</w>
##k hz</w>
##k g</w>
##k ey</w>
##k et</w>
##k er</w>
##k en</w>
##k e</w>
##k b</w>
##k a</w>
##j y</w>
##j un</w>
##j u</w>
##j s</w>
##j oy</w>
##j o</w>
##j ing</w>
##j in</w>
##j ie</w>
##j iang</w>
##j ia</w>
##j i</w>
##j ect</w>
##j a</w>
##in t</w>
##in s</w>
##in o</w>
##in k</w>
##in i</w>
##in gs</w>
##in er</w>
##in ce</w>
##in a</w>
##i ze</w>
##i x</w>
##i vity</w>
##i ve</w>
##i us</w>
##i um</w>
##i u</w>
##i tz</w>
##i ty</w>
##i ts</w>
##i tor</w>
##i to</w>
##i tion</w>
##i ti</w>
##i th</w>
##i te</w>
##i ta</w>
##i t</w>
##i st</w>
##i son</w>
##i sm</w>
##i sion</w>
##i sh</w>
##i se</w>
##i sa</w>
##i s</w>
##i re</w>
##i ra</w>
##i r</w>
##i que</w>
##i p</w>
##i ous</w>
##i ons</w>
##i on</w>
##i o</w>
##i n</w>
##i me</w>
##i ma</w>
##i m</w>
##i ly</w>
##i ls</w>
##i ll</w>
##i le</w>
##i l</w>
##i ko</w>
##i ki</w>
##i ke</w>
##i ka</w>
##i k</w>
##i i</w>
##i gn</w>
##i ginal</w>
##i ght</w>
##i g</w>
##i ft</w>
##i fied</w>
##i fication</w>
##i f</w>
##i es</w>
##i er</w>
##i ence</w>
##i en</w>
##i el</w>
##i e</w>
##i der</w>
##i de</w>
##i da</w>
##i d</w>
##i cs</w>
##i con</w>
##i co</w>
##i ck</w>
##i ch</w>
##i ce</w>
##i cal</w>
##i ca</w>
##i c</w>
##i ble</w>
##i as</w>
##i an</w>
##i al</w>
##i a</w>
##ho w</w>
##ho use</w>
##ho st</w>
##ho p</w>
##ho o</w>
##ho me</w>
##h z</w>
##h y</w>
##h ur</w>
##h ua</w>
##h u</w>
##h ttp</w>
##h t</w>
##h s</w>
##h r</w>
##h p</w>
##h one</w>
##h o</w>
##h n</w>
##h m</w>
##h l</w>
##h k</w>
##h ip</w>
##h ing</w>
##h in</w>
##h ia</w>
##h i</w>
##h g</w>
##h ere</w>
##h er</w>
##h en</w>
##h ead</w>
##h e</w>
##h d</w>
##h c</w>
##h at</w>
##h ang</w>
##h an</w>
##h am</w>
##h ai</w>
##h a</w>
##g y</w>
##g t</w>
##g s</w>
##g roup</w>
##g round</w>
##g raphy</w>
##g p</w>
##g oogle</w>
##g o</w>
##g net</w>
##g n</w>
##g ma</w>
##g m</w>
##g le</w>
##g l</w>
##g ion</w>
##g io</w>
##g ing</w>
##g in</w>
##g i</w>
##g ht</w>
##g h</w>
##g gle</w>
##g g</w>
##g etrelax</w>
##g et</w>
##g er</w>
##g ence</w>
##g en</w>
##g ed</w>
##g e</w>
##g c</w>
##g b</w>
##g ate</w>
##g as</w>
##g ar</w>
##g an</w>
##g a</w>
##for m</w>
##for k</w>
##for d</w>
##for ce</w>
##fi rm</w>
##fi le</w>
##fi g</w>
##fi eld</w>
##f x</w>
##f w</w>
##f un</w>
##f ul</w>
##f u</w>
##f t</w>
##f s</w>
##f ree</w>
##f r</w>
##f ood</w>
##f o</w>
##f ly</w>
##f low</w>
##f l</w>
##f it</w>
##f i</w>
##f f</w>
##f et</w>
##f erence</w>
##f er</w>
##f e</w>
##f c</w>
##f acebook</w>
##f ace</w>
##f a</w>
##f 2016</w>
##et te</w>
##et ing</w>
##er y</w>
##er t</w>
##er son</w>
##er s</w>
##er ry</w>
##er nel</w>
##er n</w>
##er ing</w>
##er e</w>
##er a</w>
##en s</w>
##en g</w>
##en e</w>
##en d</w>
##en a</w>
##e z</w>
##e y</w>
##e x</w>
##e ws</w>
##e w</w>
##e ver</w>
##e v</w>
##e tt</w>
##e ts</w>
##e t</w>
##e st</w>
##e ss</w>
##e se</w>
##e s</w>
##e p</w>
##e o</w>
##e n</w>
##e ment</w>
##e me</w>
##e m</w>
##e llo</w>
##e lla</w>
##e ll</w>
##e l</w>
##e k</w>
##e in</w>
##e i</w>
##e h</w>
##e g</w>
##e f</w>
##e et</w>
##e ep</w>
##e en</w>
##e e</w>
##e d</w>
##e ct</w>
##e c</w>
##e ar</w>
##e an</w>
##e am</w>
##e ad</w>
##e a</w>
##d y</w>
##d u</w>
##d t</w>
##d s</w>
##d rive</w>
##d ragon</w>
##d ra</w>
##d r</w>
##d p</w>
##d own</w>
##d ot</w>
##d on</w>
##d om</w>
##d og</w>
##d o</w>
##d n</w>
##d m</w>
##d k</w>
##d ium</w>
##d io</w>
##d ing</w>
##d ie</w>
##d ical</w>
##d ia</w>
##d i</w>
##d get</w>
##d ge</w>
##d esk</w>
##d es</w>
##d er</w>
##d eo</w>
##d en</w>
##d el</w>
##d ed</w>
##d e</w>
##d den</w>
##d d</w>
##d c</w>
##d b</w>
##d ay</w>
##d ata</w>
##d ar</w>
##d an</w>
##d a</w>
##co very</w>
##co unt</w>
##co pyright</w>
##co me</w>
##co m</w>
##co in</w>
##co de</w>
##ch i</w>
##ch er</w>
##ch en</w>
##ch el</w>
##ch e</w>
##ch at</w>
##ch a</w>
##c y</w>
##c us</w>
##c ture</w>
##c ts</w>
##c tor</w>
##c tive</w>
##c tionary</w>
##c tion</w>
##c t</w>
##c s</w>
##c r</w>
##c p</w>
##c ore</w>
##c ord</w>
##c on</w>
##c o</w>
##c n</w>
##c m～</w>
##c ms</w>
##c m</w>
##c le</w>
##c l</w>
##c ky</w>
##c ks</w>
##c ket</w>
##c ker</w>
##c k</w>
##c ity</w>
##c ing</w>
##c il</w>
##c ia</w>
##c i</w>
##c h</w>
##c g</w>
##c es</w>
##c er</w>
##c ept</w>
##c ent</w>
##c el</w>
##c e</w>
##c d</w>
##c ca</w>
##c c</w>
##c ation</w>
##c at</w>
##c ast</w>
##c are</w>
##c ard</w>
##c ar</w>
##c an</w>
##c am</w>
##c al</w>
##c ake</w>
##c a</w>
##bo y</w>
##bo x</w>
##bo w</w>
##bo t</w>
##bo r</w>
##bo dy</w>
##bo ard</w>
##b y</w>
##b us</w>
##b urg</w>
##b ug</w>
##b u</w>
##b t</w>
##b scribe</w>
##b s</w>
##b re</w>
##b ra</w>
##b ook</w>
##b on</w>
##b o</w>
##b log</w>
##b le</w>
##b it</w>
##b in</w>
##b ility</w>
##b ike</w>
##b ian</w>
##b ia</w>
##b i</w>
##b eth</w>
##b et</w>
##b ert</w>
##b erry</w>
##b erg</w>
##b er</w>
##b ell</w>
##b el</w>
##b ee</w>
##b e</w>
##b c</w>
##b by</w>
##b bs</w>
##b b</w>
##b ay</w>
##b at</w>
##b ase</w>
##b aru</w>
##b ar</w>
##b ank</w>
##b all</w>
##b ack</w>
##b aby</w>
##b a</w>
##an t</w>
##an s</w>
##an onymoussaid</w>
##an o</w>
##an n</w>
##an i</w>
##an g</w>
##an e</w>
##an da</w>
##an d</w>
##an ce</w>
##an a</w>
##a y</w>
##a x</w>
##a w</w>
##a ve</w>
##a v</w>
##a u</w>
##a tus</w>
##a ture</w>
##a ts</w>
##a tor</w>
##a tions</w>
##a tion</w>
##a tic</w>
##a ther</w>
##a th</w>
##a te</w>
##a ta</w>
##a t</w>
##a st</w>
##a ss</w>
##a sia</w>
##a sh</w>
##a se</w>
##a s</w>
##a r</w>
##a pp</w>
##a pe</w>
##a p</w>
##a o</w>
##a n</w>
##a me</w>
##a ma</w>
##a m</w>
##a ls</w>
##a ll</w>
##a lk</w>
##a le</w>
##a ld</w>
##a la</w>
##a l</w>
##a ke</w>
##a ka</w>
##a k</w>
##a ir</w>
##a ine</w>
##a in</w>
##a il</w>
##a id</w>
##a i</w>
##a h</w>
##a gue</w>
##a ger</w>
##a ge</w>
##a g</w>
##a ft</w>
##a f</w>
##a e</w>
##a ds</w>
##a dmin</w>
##a der</w>
##a de</w>
##a da</w>
##a d</w>
##a ct</w>
##a ck</w>
##a ch</w>
##a ce</w>
##a c</w>
##a ble</w>
##a bc</w>
##a b</w>
##a a</w>
##a 5</w>
##a 2</w>
##a 1</w>
##9 99</w>
##9 8</w>
##9 7</w>
##9 6</w>
##9 5</w>
##9 4</w>
##9 3</w>
##9 2</w>
##9 1</w>
##9 00</w>
##8 9</w>
##8 88</w>
##8 7</w>
##8 6</w>
##8 5</w>
##8 4</w>
##8 3</w>
##8 2</w>
##8 1</w>
##8 00</w>
##7 9</w>
##7 8</w>
##7 7</w>
##7 6</w>
##7 5</w>
##7 50</w>
##7 4</w>
##7 3</w>
##7 2</w>
##7 1</w>
##7 00</w>
##6 9</w>
##6 8</w>
##6 7</w>
##6 6</w>
##6 5</w>
##6 4</w>
##6 3</w>
##6 2</w>
##6 1</w>
##6 00</w>
##5 s</w>
##5 9</w>
##5 8</w>
##5 80</w>
##5 7</w>
##5 6</w>
##5 5</w>
##5 4</w>
##5 3</w>
##5 2</w>
##5 20</w>
##5 1</w>
##5 00</w>
##4 9</w>
##4 8</w>
##4 80</w>
##4 7</w>
##4 70</w>
##4 6</w>
##4 5</w>
##4 4</w>
##4 3</w>
##4 2</w>
##4 1</w>
##4 0</w>
##4 00</w>
##3 d</w>
##3 c</w>
##3 9</w>
##3 8</w>
##3 7</w>
##3 70</w>
##3 6</w>
##3 65</w>
##3 60</w>
##3 5</w>
##3 4</w>
##3 3</w>
##3 2</w>
##3 1</w>
##3 0</w>
##3 00</w>
##201 7</w>
##201 6</w>
##201 5</w>
##201 4</w>
##201 3</w>
##201 2</w>
##201 1</w>
##200 9</w>
##200 8</w>
##200 7</w>
##2 f</w>
##2 d</w>
##2 c</w>
##2 9</w>
##2 8</w>
##2 7</w>
##2 6</w>
##2 5</w>
##2 50</w>
##2 4</w>
##2 3</w>
##2 2</w>
##2 1</w>
##2 00</w>
##16 8</w>
##16 3</w>
##16 0</w>
##0 mm</w>
##0 m</w>
##0 9</w>
##0 8</w>
##0 7</w>
##0 6</w>
##0 5</w>
##0 4</w>
##0 3</w>
##0 2</w>
##0 1</w>
##0 17</w>
##0 16</w>
##0 15</w>
##0 14</w>
##0 13</w>
##0 12</w>
##0 11</w>
##0 10</w>
##0 00</w>
## 😎</w>
## 😂</w>
## 🔥</w>
## 👍</w>
## ￥</w>
## ￣</w>
## ﾟ</w>
## ﾞ</w>
## ﾝ</w>
## ﾙ</w>
## ﾗ</w>
## ﾌ</w>
## ﾉ</w>
## ﾄ</w>
## ｽ</w>
## ｼ</w>
## ｸ</w>
## ｲ</w>
## ｰ</w>
## ｯ</w>
## ･</w>
## ､</w>
## ｣</w>
## ｢</w>
## ｡</w>
## ～</w>
## ｝</w>
## ｜</w>
## ｛</w>
## ｚ</w>
## ｙ</w>
## ｘ</w>
## ｗ</w>
## ｖ</w>
## ｕ</w>
## ｔ</w>
## ｓ</w>
## ｒ</w>
## ｑ</w>
## ｐ</w>
## ｏ</w>
## ｎ</w>
## ｍ</w>
## ｌ</w>
## ｋ</w>
## ｊ</w>
## ｉ</w>
## ｈ</w>
## ｇ</w>
## ｆ</w>
## ｅ</w>
## ｄ</w>
## ｃ</w>
## ｂ</w>
## ａ</w>
## ｀</w>
## ＿</w>
## ＾</w>
## ］</w>
## ＼</w>
## ［</w>
## ＠</w>
## ？</w>
## ＞</w>
## ＝</w>
## ＜</w>
## ；</w>
## ：</w>
## ９</w>
## ８</w>
## ７</w>
## ６</w>
## ５</w>
## ４</w>
## ３</w>
## ２</w>
## １０</w>
## １</w>
## ００</w>
## ０</w>
## ／</w>
## ．</w>
## －</w>
## ，</w>
## ＋</w>
## ＊</w>
## ）</w>
## （</w>
## ＇</w>
## ＆</w>
## ％</w>
## ＄</w>
## ＃</w>
## ＂</w>
## ！</w>
## ﹣</w>
## ﹡</w>
## ﹞</w>
## ﹝</w>
## ﹚</w>
## ﹙</w>
## ﹗</w>
## ﹖</w>
## ﹕</w>
## ﹔</w>
## ﹒</w>
## ﹑</w>
## ﹐</w>
## ﹏</w>
## ﹍</w>
## ﹂</w>
## ﹁</w>
## ︿</w>
## ︶</w>
## ︱</w>
## ︰</w>
## 龟</w>
## 龜</w>
## 龛</w>
## 龚</w>
## 龙</w>
## 龕</w>
## 龔</w>
## 龐</w>
## 龍</w>
## 龌</w>
## 龋</w>
## 龊</w>
## 龈</w>
## 龅</w>
## 龄</w>
## 齿</w>
## 齦</w>
## 齣</w>
## 齢</w>
## 齡</w>
## 齒</w>
## 齐</w>
## 齋</w>
## 齊</w>
## 齁</w>
## 鼾</w>
## 鼻</w>
## 鼹</w>
## 鼬</w>
## 鼠</w>
## 鼓</w>
## 鼐</w>
## 鼎</w>
## 鼋</w>
## 黴</w>
## 黯</w>
## 黨</w>
## 黠</w>
## 點</w>
## 黝</w>
## 黜</w>
## 黛</w>
## 默</w>
## 黔</w>
## 黒</w>
## 黑</w>
## 黏</w>
## 黎</w>
## 黍</w>
## 黄</w>
## 黃</w>
## 麾</w>
## 麽</w>
## 麼</w>
## 麻</w>
## 麺</w>
## 麸</w>
## 麵</w>
## 麴</w>
## 麩</w>
## 麦</w>
## 麥</w>
## 麟</w>
## 麝</w>
## 麗</w>
## 麓</w>
## 麒</w>
## 麋</w>
## 麂</w>
## 鹿</w>
## 鹽</w>
## 鹼</w>
## 鹹</w>
## 鹵</w>
## 鹳</w>
## 鹰</w>
## 鹭</w>
## 鹫</w>
## 鹧</w>
## 鹦</w>
## 鹤</w>
## 鹞</w>
## 鹜</w>
## 鹘</w>
## 鹕</w>
## 鹑</w>
## 鹏</w>
## 鹌</w>
## 鹊</w>
## 鹉</w>
## 鹈</w>
## 鹅</w>
## 鹄</w>
## 鹃</w>
## 鹂</w>
## 鸿</w>
## 鸾</w>
## 鸽</w>
## 鸵</w>
## 鸳</w>
## 鸯</w>
## 鸭</w>
## 鸪</w>
## 鸨</w>
## 鸦</w>
## 鸥</w>
## 鸣</w>
## 鸢</w>
## 鸡</w>
## 鸠</w>
## 鸟</w>
## 鸞</w>
## 鸚</w>
## 鷺</w>
## 鷹</w>
## 鷲</w>
## 鷗</w>
## 鶴</w>
## 鶯</w>
## 鶩</w>
## 鶘</w>
## 鵲</w>
## 鵰</w>
## 鵬</w>
## 鵡</w>
## 鵝</w>
## 鵜</w>
## 鵑</w>
## 鴿</w>
## 鴻</w>
## 鴨</w>
## 鴦</w>
## 鴛</w>
## 鴕</w>
## 鴉</w>
## 鳶</w>
## 鳴</w>
## 鳳</w>
## 鳩</w>
## 鳥</w>
## 鳞</w>
## 鳝</w>
## 鳗</w>
## 鳖</w>
## 鳕</w>
## 鳍</w>
## 鳌</w>
## 鳅</w>
## 鳄</w>
## 鳃</w>
## 鲸</w>
## 鲷</w>
## 鲶</w>
## 鲲</w>
## 鲱</w>
## 鲫</w>
## 鲨</w>
## 鲤</w>
## 鲢</w>
## 鲟</w>
## 鲜</w>
## 鲛</w>
## 鲑</w>
## 鲍</w>
## 鲈</w>
## 鲁</w>
## 鱿</w>
## 鱼</w>
## 鱸</w>
## 鱷</w>
## 鱗</w>
## 鱔</w>
## 鱉</w>
## 鱈</w>
## 鰾</w>
## 鰻</w>
## 鰲</w>
## 鰭</w>
## 鰓</w>
## 鰍</w>
## 鯽</w>
## 鯰</w>
## 鯨</w>
## 鯛</w>
## 鯖</w>
## 鯊</w>
## 鯉</w>
## 鮮</w>
## 鮭</w>
## 鮪</w>
## 鮨</w>
## 鮑</w>
## 魷</w>
## 魯</w>
## 魚</w>
## 魘</w>
## 魔</w>
## 魏</w>
## 魍</w>
## 魇</w>
## 魅</w>
## 魄</w>
## 魂</w>
## 魁</w>
## 鬼</w>
## 鬱</w>
## 鬧</w>
## 鬥</w>
## 鬣</w>
## 鬢</w>
## 鬟</w>
## 鬚</w>
## 鬓</w>
## 鬍</w>
## 鬆</w>
## 鬃</w>
## 髻</w>
## 髯</w>
## 髮</w>
## 髪</w>
## 髦</w>
## 高</w>
## 髖</w>
## 體</w>
## 髓</w>
## 髒</w>
## 髏</w>
## 髋</w>
## 髅</w>
## 髂</w>
## 骼</w>
## 骸</w>
## 骷</w>
## 骶</w>
## 骰</w>
## 骯</w>
## 骨</w>
## 骧</w>
## 骥</w>
## 骤</w>
## 骡</w>
## 骠</w>
## 骞</w>
## 骜</w>
## 骛</w>
## 骚</w>
## 骗</w>
## 骑</w>
## 骐</w>
## 骏</w>
## 验</w>
## 骋</w>
## 骊</w>
## 骈</w>
## 骇</w>
## 骆</w>
## 骅</w>
## 骄</w>
## 骂</w>
## 骁</w>
## 驿</w>
## 驾</w>
## 驼</w>
## 驻</w>
## 驹</w>
## 驸</w>
## 驷</w>
## 驶</w>
## 驴</w>
## 驳</w>
## 驱</w>
## 驰</w>
## 驯</w>
## 驮</w>
## 驭</w>
## 马</w>
## 驥</w>
## 驢</w>
## 驟</w>
## 驛</w>
## 驚</w>
## 驗</w>
## 驕</w>
## 驒</w>
## 驍</w>
## 驊</w>
## 驅</w>
## 驀</w>
## 騷</w>
## 騰</w>
## 騨</w>
## 騙</w>
## 験</w>
## 騏</w>
## 騎</w>
## 騁</w>
## 駿</w>
## 駱</w>
## 駭</w>
## 駝</w>
## 駛</w>
## 駕</w>
## 駒</w>
## 駐</w>
## 駆</w>
## 駅</w>
## 駄</w>
## 駁</w>
## 馴</w>
## 馳</w>
## 馮</w>
## 馭</w>
## 馬</w>
## 馨</w>
## 馥</w>
## 香</w>
## 馗</w>
## 首</w>
## 馔</w>
## 馒</w>
## 馏</w>
## 馍</w>
## 馋</w>
## 馈</w>
## 馆</w>
## 馅</w>
## 馄</w>
## 馁</w>
## 馀</w>
## 饿</w>
## 饽</w>
## 饼</w>
## 饺</w>
## 饷</w>
## 饶</w>
## 饵</w>
## 饴</w>
## 饲</w>
## 饱</w>
## 饰</w>
## 饯</w>
## 饮</w>
## 饭</w>
## 饬</w>
## 饪</w>
## 饨</w>
## 饥</w>
## 饞</w>
## 饗</w>
## 饕</w>
## 饒</w>
## 饑</w>
## 饍</w>
## 饌</w>
## 饋</w>
## 饈</w>
## 饅</w>
## 餾</w>
## 餵</w>
## 餮</w>
## 館</w>
## 餡</w>
## 餞</w>
## 餛</w>
## 餚</w>
## 餘</w>
## 餓</w>
## 餒</w>
## 餐</w>
## 餌</w>
## 養</w>
## 餉</w>
## 餅</w>
## 餃</w>
## 飾</w>
## 飽</w>
## 飼</w>
## 飲</w>
## 飯</w>
## 飪</w>
## 飩</w>
## 飨</w>
## 飢</w>
## 食</w>
## 飞</w>
## 飛</w>
## 飚</w>
## 飙</w>
## 飘</w>
## 飕</w>
## 飓</w>
## 飒</w>
## 风</w>
## 飆</w>
## 飄</w>
## 颼</w>
## 颶</w>
## 颳</w>
## 颱</w>
## 颯</w>
## 風</w>
## 颧</w>
## 颦</w>
## 颤</w>
## 颢</w>
## 颡</w>
## 颠</w>
## 颞</w>
## 额</w>
## 颜</w>
## 颛</w>
## 颚</w>
## 题</w>
## 颗</w>
## 颖</w>
## 颔</w>
## 颓</w>
## 频</w>
## 颐</w>
## 颍</w>
## 颌</w>
## 颊</w>
## 颉</w>
## 颈</w>
## 颇</w>
## 领</w>
## 颅</w>
## 预</w>
## 颂</w>
## 颁</w>
## 顿</w>
## 顾</w>
## 顽</w>
## 顼</w>
## 须</w>
## 顺</w>
## 项</w>
## 顷</w>
## 顶</w>
## 页</w>
## 顴</w>
## 顱</w>
## 顯</w>
## 顫</w>
## 顧</w>
## 類</w>
## 顛</w>
## 願</w>
## 顔</w>
## 顏</w>
## 顎</w>
## 額</w>
## 題</w>
## 顆</w>
## 頼</w>
## 頻</w>
## 頹</w>
## 頸</w>
## 頷</w>
## 頰</w>
## 頭</w>
## 頫</w>
## 頤</w>
## 頡</w>
## 頜</w>
## 領</w>
## 頗</w>
## 頓</w>
## 頒</w>
## 頑</w>
## 預</w>
## 頌</w>
## 須</w>
## 順</w>
## 項</w>
## 頃</w>
## 頂</w>
## 頁</w>
## 響</w>
## 韻</w>
## 韶</w>
## 韵</w>
## 音</w>
## 韭</w>
## 韬</w>
## 韩</w>
## 韧</w>
## 韦</w>
## 韜</w>
## 韓</w>
## 韌</w>
## 韋</w>
## 韆</w>
## 鞭</w>
## 鞦</w>
## 鞣</w>
## 鞠</w>
## 鞘</w>
## 鞑</w>
## 鞏</w>
## 鞍</w>
## 鞋</w>
## 鞅</w>
## 靼</w>
## 靶</w>
## 靴</w>
## 靳</w>
## 革</w>
## 靦</w>
## 靥</w>
## 面</w>
## 靡</w>
## 靠</w>
## 非</w>
## 靜</w>
## 靛</w>
## 靚</w>
## 静</w>
## 靖</w>
## 靓</w>
## 青</w>
## 靈</w>
## 靄</w>
## 靂</w>
## 霾</w>
## 霽</w>
## 霹</w>
## 霸</w>
## 露</w>
## 霰</w>
## 霭</w>
## 霧</w>
## 霞</w>
## 霜</w>
## 霖</w>
## 霓</w>
## 霑</w>
## 霏</w>
## 霎</w>
## 霍</w>
## 霊</w>
## 霉</w>
## 霈</w>
## 震</w>
## 霆</w>
## 霄</w>
## 霁</w>
## 需</w>
## 雾</w>
## 電</w>
## 雹</w>
## 雷</w>
## 零</w>
## 雳</w>
## 雲</w>
## 雰</w>
## 雯</w>
## 雪</w>
## 雨</w>
## 難</w>
## 離</w>
## 雞</w>
## 雜</w>
## 雛</w>
## 雙</w>
## 雖</w>
## 雕</w>
## 雒</w>
## 雑</w>
## 雏</w>
## 雎</w>
## 雍</w>
## 雌</w>
## 雋</w>
## 雉</w>
## 雇</w>
## 集</w>
## 雅</w>
## 雄</w>
## 雁</w>
## 雀</w>
## 难</w>
## 隽</w>
## 隼</w>
## 隻</w>
## 隸</w>
## 隶</w>
## 隴</w>
## 隱</w>
## 險</w>
## 隨</w>
## 隧</w>
## 隣</w>
## 隠</w>
## 障</w>
## 際</w>
## 隙</w>
## 隘</w>
## 隕</w>
## 隔</w>
## 隐</w>
## 随</w>
## 階</w>
## 隍</w>
## 隋</w>
## 隊</w>
## 隈</w>
## 隆</w>
## 隅</w>
## 陽</w>
## 険</w>
## 陸</w>
## 陷</w>
## 陶</w>
## 陵</w>
## 陳</w>
## 陲</w>
## 陰</w>
## 陪</w>
## 险</w>
## 陨</w>
## 除</w>
## 陣</w>
## 院</w>
## 陡</w>
## 陟</w>
## 陞</w>
## 陝</w>
## 陛</w>
## 陕</w>
## 限</w>
## 降</w>
## 陌</w>
## 陋</w>
## 陈</w>
## 陇</w>
## 陆</w>
## 际</w>
## 附</w>
## 陂</w>
## 陀</w>
## 阿</w>
## 阻</w>
## 阶</w>
## 阵</w>
## 阴</w>
## 阳</w>
## 防</w>
## 阱</w>
## 阮</w>
## 阪</w>
## 阡</w>
## 队</w>
## 阜</w>
## 阚</w>
## 阙</w>
## 阖</w>
## 阕</w>
## 阔</w>
## 阑</w>
## 阐</w>
## 阎</w>
## 阉</w>
## 阈</w>
## 阇</w>
## 阆</w>
## 阅</w>
## 阂</w>
## 阁</w>
## 阀</w>
## 闾</w>
## 闽</w>
## 闻</w>
## 闺</w>
## 闹</w>
## 闸</w>
## 闷</w>
## 闵</w>
## 间</w>
## 闲</w>
## 闰</w>
## 闯</w>
## 问</w>
## 闭</w>
## 闫</w>
## 闪</w>
## 门</w>
## 闢</w>
## 闡</w>
## 關</w>
## 闘</w>
## 闖</w>
## 闕</w>
## 闔</w>
## 闍</w>
## 闌</w>
## 闊</w>
## 闇</w>
## 闆</w>
## 閾</w>
## 閻</w>
## 閹</w>
## 閲</w>
## 閱</w>
## 閩</w>
## 閨</w>
## 閥</w>
## 閣</w>
## 関</w>
## 閡</w>
## 閘</w>
## 閔</w>
## 間</w>
## 閒</w>
## 閑</w>
## 閏</w>
## 閎</w>
## 開</w>
## 閉</w>
## 閃</w>
## 門</w>
## 长</w>
## 長</w>
## 镶</w>
## 镳</w>
## 镰</w>
## 镯</w>
## 镭</w>
## 镣</w>
## 镜</w>
## 镛</w>
## 镗</w>
## 镖</w>
## 镕</w>
## 镑</w>
## 镐</w>
## 镍</w>
## 镌</w>
## 镉</w>
## 镇</w>
## 镂</w>
## 镁</w>
## 镀</w>
## 锻</w>
## 锺</w>
## 锹</w>
## 锵</w>
## 锲</w>
## 锰</w>
## 锯</w>
## 键</w>
## 锭</w>
## 锦</w>
## 锥</w>
## 锤</w>
## 锣</w>
## 锢</w>
## 锡</w>
## 锟</w>
## 锚</w>
## 错</w>
## 锑</w>
## 锐</w>
## 锏</w>
## 锌</w>
## 锋</w>
## 锉</w>
## 锈</w>
## 锆</w>
## 锅</w>
## 锄</w>
## 锂</w>
## 锁</w>
## 销</w>
## 铿</w>
## 链</w>
## 铺</w>
## 铸</w>
## 银</w>
## 铵</w>
## 铲</w>
## 铰</w>
## 铮</w>
## 铭</w>
## 铬</w>
## 铩</w>
## 铨</w>
## 铤</w>
## 铣</w>
## 铢</w>
## 铡</w>
## 铠</w>
## 铝</w>
## 铜</w>
## 铛</w>
## 铐</w>
## 铎</w>
## 铉</w>
## 铆</w>
## 铅</w>
## 铄</w>
## 铃</w>
## 铂</w>
## 铁</w>
## 铀</w>
## 钿</w>
## 钾</w>
## 钼</w>
## 钻</w>
## 钺</w>
## 钵</w>
## 钴</w>
## 钳</w>
## 钱</w>
## 钰</w>
## 钯</w>
## 钮</w>
## 钩</w>
## 钨</w>
## 钧</w>
## 钦</w>
## 钥</w>
## 钤</w>
## 钣</w>
## 钢</w>
## 钡</w>
## 钠</w>
## 钟</w>
## 钞</w>
## 钝</w>
## 钜</w>
## 钛</w>
## 钙</w>
## 钗</w>
## 钓</w>
## 钒</w>
## 钏</w>
## 钎</w>
## 钊</w>
## 钉</w>
## 针</w>
## 鑿</w>
## 鑾</w>
## 鑽</w>
## 鑼</w>
## 鑲</w>
## 鑰</w>
## 鑫</w>
## 鑣</w>
## 鑒</w>
## 鑑</w>
## 鑊</w>
## 鑄</w>
## 鐺</w>
## 鐸</w>
## 鐵</w>
## 鐳</w>
## 鐲</w>
## 鐮</w>
## 鐘</w>
## 鏽</w>
## 鏤</w>
## 鏢</w>
## 鏡</w>
## 鏟</w>
## 鏞</w>
## 鏘</w>
## 鏗</w>
## 鏖</w>
## 鏈</w>
## 鎳</w>
## 鎮</w>
## 鎬</w>
## 鎧</w>
## 鎚</w>
## 鎗</w>
## 鎖</w>
## 鎔</w>
## 鎏</w>
## 鎌</w>
## 鎊</w>
## 鎂</w>
## 鍾</w>
## 鍺</w>
## 鍵</w>
## 鍰</w>
## 鍥</w>
## 鍛</w>
## 鍍</w>
## 鍋</w>
## 鍊</w>
## 錶</w>
## 錳</w>
## 録</w>
## 錯</w>
## 錮</w>
## 錫</w>
## 錨</w>
## 錦</w>
## 錢</w>
## 錠</w>
## 錚</w>
## 錘</w>
## 錐</w>
## 錄</w>
## 鋼</w>
## 鋸</w>
## 鋰</w>
## 鋪</w>
## 鋤</w>
## 鋒</w>
## 鋅</w>
## 鋁</w>
## 銹</w>
## 銷</w>
## 銳</w>
## 銮</w>
## 銭</w>
## 銬</w>
## 銜</w>
## 銘</w>
## 銖</w>
## 銓</w>
## 銑</w>
## 銅</w>
## 銃</w>
## 銀</w>
## 鉻</w>
## 鉴</w>
## 鉤</w>
## 鉛</w>
## 鉚</w>
## 鉗</w>
## 鉑</w>
## 鉉</w>
## 鉅</w>
## 鉄</w>
## 鉀</w>
## 鈾</w>
## 鈺</w>
## 鈴</w>
## 鈪</w>
## 鈦</w>
## 鈣</w>
## 鈞</w>
## 鈕</w>
## 鈔</w>
## 鈎</w>
## 鈍</w>
## 鈉</w>
## 鈀</w>
## 釵</w>
## 釧</w>
## 釦</w>
## 釣</w>
## 針</w>
## 釜</w>
## 釘</w>
## 釗</w>
## 金</w>
## 釐</w>
## 量</w>
## 野</w>
## 重</w>
## 里</w>
## 釋</w>
## 释</w>
## 釉</w>
## 采</w>
## 釁</w>
## 釀</w>
## 醺</w>
## 醴</w>
## 醯</w>
## 醮</w>
## 醬</w>
## 醫</w>
## 醪</w>
## 醣</w>
## 醞</w>
## 醜</w>
## 醛</w>
## 醚</w>
## 醒</w>
## 醐</w>
## 醍</w>
## 醋</w>
## 醉</w>
## 醇</w>
## 醃</w>
## 酿</w>
## 酸</w>
## 酷</w>
## 酶</w>
## 酵</w>
## 酱</w>
## 酰</w>
## 酯</w>
## 酮</w>
## 酬</w>
## 酪</w>
## 酩</w>
## 酥</w>
## 酣</w>
## 酢</w>
## 酝</w>
## 酚</w>
## 酗</w>
## 酒</w>
## 酐</w>
## 配</w>
## 酌</w>
## 酋</w>
## 酊</w>
## 酉</w>
## 鄺</w>
## 鄲</w>
## 鄱</w>
## 鄰</w>
## 鄭</w>
## 鄧</w>
## 鄢</w>
## 鄞</w>
## 鄙</w>
## 鄔</w>
## 鄒</w>
## 鄉</w>
## 鄂</w>
## 都</w>
## 郸</w>
## 郷</w>
## 郵</w>
## 郴</w>
## 郭</w>
## 郫</w>
## 部</w>
## 郧</w>
## 郦</w>
## 郤</w>
## 郢</w>
## 郡</w>
## 郝</w>
## 郜</w>
## 郑</w>
## 郎</w>
## 郊</w>
## 郅</w>
## 郁</w>
## 邻</w>
## 邺</w>
## 邹</w>
## 邸</w>
## 邵</w>
## 邳</w>
## 邱</w>
## 邰</w>
## 邯</w>
## 邮</w>
## 邬</w>
## 邪</w>
## 邨</w>
## 邦</w>
## 那</w>
## 邢</w>
## 邝</w>
## 邛</w>
## 邕</w>
## 邓</w>
## 邑</w>
## 邏</w>
## 邋</w>
## 邊</w>
## 邈</w>
## 邇</w>
## 還</w>
## 邃</w>
## 邂</w>
## 邁</w>
## 邀</w>
## 避</w>
## 遽</w>
## 遼</w>
## 遺</w>
## 選</w>
## 遷</w>
## 遶</w>
## 遵</w>
## 遴</w>
## 遲</w>
## 遮</w>
## 遭</w>
## 適</w>
## 遨</w>
## 遥</w>
## 遣</w>
## 遢</w>
## 遠</w>
## 遞</w>
## 遜</w>
## 遛</w>
## 遙</w>
## 遗</w>
## 違</w>
## 達</w>
## 道</w>
## 遒</w>
## 遑</w>
## 遐</w>
## 遏</w>
## 過</w>
## 遍</w>
## 運</w>
## 遊</w>
## 遇</w>
## 遅</w>
## 遂</w>
## 遁</w>
## 逾</w>
## 逼</w>
## 逻</w>
## 逸</w>
## 逶</w>
## 逵</w>
## 進</w>
## 週</w>
## 逮</w>
## 連</w>
## 逢</w>
## 造</w>
## 速</w>
## 逞</w>
## 逝</w>
## 逛</w>
## 通</w>
## 這</w>
## 逗</w>
## 逕</w>
## 途</w>
## 递</w>
## 逐</w>
## 透</w>
## 逍</w>
## 逊</w>
## 选</w>
## 逆</w>
## 逅</w>
## 逃</w>
## 适</w>
## 送</w>
## 退</w>
## 追</w>
## 迺</w>
## 迹</w>
## 迸</w>
## 迷</w>
## 迴</w>
## 述</w>
## 迭</w>
## 迫</w>
## 迪</w>
## 迩</w>
## 迦</w>
## 迥</w>
## 迤</w>
## 迢</w>
## 迟</w>
## 连</w>
## 违</w>
## 远</w>
## 进</w>
## 这</w>
## 还</w>
## 返</w>
## 近</w>
## 运</w>
## 迎</w>
## 迈</w>
## 过</w>
## 迅</w>
## 迄</w>
## 迂</w>
## 迁</w>
## 达</w>
## 辽</w>
## 込</w>
## 辻</w>
## 辺</w>
## 边</w>
## 農</w>
## 辱</w>
## 辰</w>
## 辯</w>
## 辮</w>
## 辭</w>
## 辫</w>
## 辩</w>
## 辨</w>
## 辦</w>
## 辣</w>
## 辟</w>
## 辞</w>
## 辜</w>
## 辛</w>
## 辙</w>
## 辘</w>
## 辗</w>
## 辖</w>
## 辕</w>
## 输</w>
## 辑</w>
## 辐</w>
## 辍</w>
## 辊</w>
## 辉</w>
## 辈</w>
## 辇</w>
## 辆</w>
## 辅</w>
## 辄</w>
## 较</w>
## 轿</w>
## 载</w>
## 轼</w>
## 轻</w>
## 轶</w>
## 轴</w>
## 轲</w>
## 轰</w>
## 软</w>
## 轮</w>
## 轭</w>
## 转</w>
## 轩</w>
## 轨</w>
## 轧</w>
## 车</w>
## 轟</w>
## 轎</w>
## 轍</w>
## 轉</w>
## 轆</w>
## 轅</w>
## 轄</w>
## 輿</w>
## 輾</w>
## 輻</w>
## 輸</w>
## 輯</w>
## 輪</w>
## 輩</w>
## 輟</w>
## 輝</w>
## 輛</w>
## 輕</w>
## 輔</w>
## 輓</w>
## 輒</w>
## 載</w>
## 較</w>
## 軾</w>
## 軽</w>
## 軼</w>
## 軸</w>
## 転</w>
## 軟</w>
## 軒</w>
## 軍</w>
## 軌</w>
## 軋</w>
## 車</w>
## 軀</w>
## 躺</w>
## 躲</w>
## 躯</w>
## 躬</w>
## 身</w>
## 躪</w>
## 躏</w>
## 躍</w>
## 躋</w>
## 躊</w>
## 躉</w>
## 躇</w>
## 躁</w>
## 蹿</w>
## 蹼</w>
## 蹺</w>
## 蹶</w>
## 蹴</w>
## 蹲</w>
## 蹭</w>
## 蹬</w>
## 蹩</w>
## 蹦</w>
## 蹤</w>
## 蹣</w>
## 蹟</w>
## 蹙</w>
## 蹒</w>
## 蹑</w>
## 蹋</w>
## 蹊</w>
## 蹉</w>
## 蹈</w>
## 蹇</w>
## 蹄</w>
## 蹂</w>
## 踹</w>
## 踵</w>
## 踴</w>
## 踱</w>
## 踮</w>
## 踪</w>
## 踩</w>
## 踢</w>
## 踟</w>
## 踞</w>
## 踝</w>
## 踐</w>
## 踏</w>
## 踌</w>
## 踊</w>
## 踉</w>
## 跻</w>
## 跺</w>
## 跹</w>
## 跷</w>
## 践</w>
## 跳</w>
## 路</w>
## 跪</w>
## 跩</w>
## 跨</w>
## 跤</w>
## 跡</w>
## 跟</w>
## 距</w>
## 跛</w>
## 跚</w>
## 跖</w>
## 跑</w>
## 跎</w>
## 跌</w>
## 跋</w>
## 跆</w>
## 跄</w>
## 跃</w>
## 趾</w>
## 趺</w>
## 趸</w>
## 趵</w>
## 趴</w>
## 足</w>
## 趨</w>
## 趣</w>
## 趟</w>
## 趙</w>
## 趕</w>
## 趋</w>
## 越</w>
## 超</w>
## 趁</w>
## 起</w>
## 赶</w>
## 赵</w>
## 赴</w>
## 赳</w>
## 走</w>
## 赭</w>
## 赫</w>
## 赧</w>
## 赦</w>
## 赤</w>
## 赣</w>
## 赢</w>
## 赡</w>
## 赠</w>
## 赞</w>
## 赝</w>
## 赛</w>
## 赚</w>
## 赘</w>
## 赖</w>
## 赔</w>
## 赓</w>
## 赐</w>
## 赏</w>
## 赎</w>
## 赌</w>
## 赋</w>
## 赊</w>
## 赈</w>
## 赅</w>
## 资</w>
## 赃</w>
## 赂</w>
## 赁</w>
## 贿</w>
## 贾</w>
## 贼</w>
## 贻</w>
## 贺</w>
## 费</w>
## 贸</w>
## 贷</w>
## 贵</w>
## 贴</w>
## 贲</w>
## 贱</w>
## 贰</w>
## 贯</w>
## 贮</w>
## 购</w>
## 贬</w>
## 贫</w>
## 贪</w>
## 贩</w>
## 质</w>
## 货</w>
## 账</w>
## 败</w>
## 贤</w>
## 责</w>
## 财</w>
## 贡</w>
## 负</w>
## 贞</w>
## 贝</w>
## 贛</w>
## 贖</w>
## 贓</w>
## 贏</w>
## 贍</w>
## 贊</w>
## 贈</w>
## 贅</w>
## 賽</w>
## 購</w>
## 賺</w>
## 賴</w>
## 賭</w>
## 賬</w>
## 質</w>
## 賦</w>
## 賤</w>
## 賣</w>
## 賢</w>
## 賡</w>
## 賠</w>
## 賞</w>
## 賜</w>
## 賓</w>
## 賑</w>
## 賊</w>
## 賈</w>
## 資</w>
## 賄</w>
## 賃</w>
## 賂</w>
## 賁</w>
## 賀</w>
## 貿</w>
## 貽</w>
## 貼</w>
## 費</w>
## 貸</w>
## 買</w>
## 貶</w>
## 貴</w>
## 貳</w>
## 貰</w>
## 貯</w>
## 責</w>
## 貫</w>
## 貪</w>
## 販</w>
## 貨</w>
## 貧</w>
## 貢</w>
## 財</w>
## 負</w>
## 貞</w>
## 貝</w>
## 貘</w>
## 貔</w>
## 貓</w>
## 貌</w>
## 貅</w>
## 貂</w>
## 豺</w>
## 豹</w>
## 豬</w>
## 豫</w>
## 豪</w>
## 豢</w>
## 象</w>
## 豚</w>
## 豔</w>
## 豐</w>
## 豎</w>
## 豌</w>
## 豊</w>
## 豉</w>
## 豈</w>
## 豇</w>
## 豆</w>
## 豁</w>
## 谷</w>
## 谶</w>
## 谴</w>
## 谲</w>
## 谱</w>
## 谯</w>
## 谭</w>
## 谬</w>
## 谪</w>
## 谩</w>
## 谨</w>
## 谧</w>
## 谦</w>
## 谥</w>
## 谤</w>
## 谣</w>
## 谢</w>
## 谟</w>
## 谜</w>
## 谛</w>
## 谚</w>
## 谙</w>
## 谘</w>
## 谗</w>
## 谕</w>
## 谔</w>
## 谓</w>
## 谒</w>
## 谑</w>
## 谐</w>
## 谏</w>
## 谎</w>
## 谍</w>
## 谌</w>
## 谋</w>
## 谊</w>
## 谈</w>
## 谆</w>
## 谅</w>
## 谄</w>
## 调</w>
## 谁</w>
## 谀</w>
## 诿</w>
## 课</w>
## 诽</w>
## 读</w>
## 诺</w>
## 诸</w>
## 请</w>
## 诶</w>
## 诵</w>
## 说</w>
## 诲</w>
## 诱</w>
## 诰</w>
## 误</w>
## 语</w>
## 诬</w>
## 诫</w>
## 诩</w>
## 诧</w>
## 详</w>
## 该</w>
## 诤</w>
## 诣</w>
## 询</w>
## 诡</w>
## 诠</w>
## 诟</w>
## 诞</w>
## 话</w>
## 诛</w>
## 诚</w>
## 诙</w>
## 诘</w>
## 诗</w>
## 试</w>
## 译</w>
## 诏</w>
## 词</w>
## 诋</w>
## 诊</w>
## 诉</w>
## 诈</w>
## 识</w>
## 诅</w>
## 评</w>
## 诃</w>
## 证</w>
## 诀</w>
## 访</w>
## 设</w>
## 讽</w>
## 讼</w>
## 论</w>
## 讹</w>
## 许</w>
## 讷</w>
## 讶</w>
## 讴</w>
## 讳</w>
## 讲</w>
## 记</w>
## 讯</w>
## 议</w>
## 训</w>
## 讫</w>
## 讪</w>
## 让</w>
## 讨</w>
## 讧</w>
## 讥</w>
## 认</w>
## 订</w>
## 计</w>
## 讞</w>
## 讚</w>
## 讓</w>
## 變</w>
## 讀</w>
## 譽</w>
## 護</w>
## 譴</w>
## 譲</w>
## 議</w>
## 譯</w>
## 譬</w>
## 警</w>
## 譜</w>
## 譚</w>
## 譙</w>
## 識</w>
## 譏</w>
## 譎</w>
## 證</w>
## 譁</w>
## 謾</w>
## 謹</w>
## 謬</w>
## 謨</w>
## 謠</w>
## 謝</w>
## 講</w>
## 謙</w>
## 謗</w>
## 謔</w>
## 謐</w>
## 謎</w>
## 謊</w>
## 謄</w>
## 謂</w>
## 謁</w>
## 謀</w>
## 諾</w>
## 諺</w>
## 諸</w>
## 諷</w>
## 諳</w>
## 諱</w>
## 諮</w>
## 諭</w>
## 諫</w>
## 諧</w>
## 諦</w>
## 諡</w>
## 諜</w>
## 諗</w>
## 論</w>
## 諒</w>
## 諏</w>
## 請</w>
## 談</w>
## 諄</w>
## 調</w>
## 誼</w>
## 誹</w>
## 課</w>
## 誰</w>
## 読</w>
## 説</w>
## 說</w>
## 誨</w>
## 誦</w>
## 誥</w>
## 誤</w>
## 誣</w>
## 誡</w>
## 誠</w>
## 語</w>
## 誘</w>
## 誕</w>
## 誓</w>
## 認</w>
## 誌</w>
## 誉</w>
## 誇</w>
## 誅</w>
## 詼</w>
## 詹</w>
## 詳</w>
## 該</w>
## 話</w>
## 詰</w>
## 詮</w>
## 詭</w>
## 詬</w>
## 詫</w>
## 詩</w>
## 試</w>
## 詣</w>
## 詢</w>
## 詡</w>
## 詠</w>
## 詞</w>
## 詛</w>
## 評</w>
## 詔</w>
## 詐</w>
## 詆</w>
## 証</w>
## 註</w>
## 診</w>
## 訶</w>
## 訴</w>
## 訳</w>
## 許</w>
## 設</w>
## 訪</w>
## 訥</w>
## 訣</w>
## 訟</w>
## 訝</w>
## 訛</w>
## 記</w>
## 託</w>
## 訖</w>
## 訕</w>
## 訓</w>
## 討</w>
## 訊</w>
## 計</w>
## 訂</w>
## 言</w>
## 觸</w>
## 触</w>
## 觥</w>
## 解</w>
## 觞</w>
## 角</w>
## 觑</w>
## 觐</w>
## 觎</w>
## 觊</w>
## 觉</w>
## 览</w>
## 视</w>
## 觅</w>
## 规</w>
## 观</w>
## 见</w>
## 觀</w>
## 覽</w>
## 覺</w>
## 覷</w>
## 観</w>
## 覬</w>
## 親</w>
## 覧</w>
## 覦</w>
## 覚</w>
## 視</w>
## 覓</w>
## 規</w>
## 見</w>
## 覇</w>
## 覆</w>
## 覃</w>
## 要</w>
## 西</w>
## 襲</w>
## 襯</w>
## 襬</w>
## 襪</w>
## 襠</w>
## 襟</w>
## 襄</w>
## 襁</w>
## 褻</w>
## 褶</w>
## 褲</w>
## 褫</w>
## 褪</w>
## 褥</w>
## 褚</w>
## 褔</w>
## 褓</w>
## 褒</w>
## 褐</w>
## 複</w>
## 褂</w>
## 裾</w>
## 製</w>
## 裹</w>
## 裸</w>
## 裴</w>
## 裳</w>
## 裱</w>
## 裨</w>
## 裤</w>
## 裡</w>
## 裟</w>
## 裝</w>
## 補</w>
## 裙</w>
## 裘</w>
## 裕</w>
## 裔</w>
## 裏</w>
## 裊</w>
## 裆</w>
## 装</w>
## 裂</w>
## 裁</w>
## 袱</w>
## 袭</w>
## 被</w>
## 袪</w>
## 袤</w>
## 袞</w>
## 袜</w>
## 袖</w>
## 袒</w>
## 袍</w>
## 袋</w>
## 袈</w>
## 袅</w>
## 袄</w>
## 袂</w>
## 袁</w>
## 衿</w>
## 衾</w>
## 衹</w>
## 衷</w>
## 衲</w>
## 衰</w>
## 衮</w>
## 衬</w>
## 衫</w>
## 衩</w>
## 表</w>
## 补</w>
## 衣</w>
## 衢</w>
## 衡</w>
## 衞</w>
## 衝</w>
## 衛</w>
## 衙</w>
## 街</w>
## 衔</w>
## 術</w>
## 衍</w>
## 行</w>
## 衆</w>
## 衅</w>
## 衄</w>
## 血</w>
## 蠻</w>
## 蠹</w>
## 蠶</w>
## 蠱</w>
## 蠣</w>
## 蠢</w>
## 蠡</w>
## 蠟</w>
## 蠛</w>
## 蠕</w>
## 蠔</w>
## 蠍</w>
## 蠅</w>
## 蟾</w>
## 蟻</w>
## 蟹</w>
## 蟲</w>
## 蟬</w>
## 蟠</w>
## 蟒</w>
## 蟑</w>
## 蟎</w>
## 蟋</w>
## 蟆</w>
## 蟄</w>
## 蟀</w>
## 螺</w>
## 螳</w>
## 螯</w>
## 螨</w>
## 螢</w>
## 螞</w>
## 融</w>
## 螃</w>
## 螂</w>
## 蝼</w>
## 蝸</w>
## 蝶</w>
## 蝴</w>
## 蝨</w>
## 蝦</w>
## 蝠</w>
## 蝟</w>
## 蝙</w>
## 蝗</w>
## 蝕</w>
## 蝎</w>
## 蝌</w>
## 蝉</w>
## 蝈</w>
## 蝇</w>
## 蜿</w>
## 蜻</w>
## 蜷</w>
## 蜴</w>
## 蜱</w>
## 蜥</w>
## 蜢</w>
## 蜡</w>
## 蜜</w>
## 蜚</w>
## 蜘</w>
## 蜗</w>
## 蜕</w>
## 蜓</w>
## 蜒</w>
## 蜍</w>
## 蜊</w>
## 蜈</w>
## 蜇</w>
## 蜆</w>
## 蜃</w>
## 蜂</w>
## 蜀</w>
## 蛾</w>
## 蛻</w>
## 蛹</w>
## 蛳</w>
## 蛰</w>
## 蛮</w>
## 蛭</w>
## 蛤</w>
## 蛟</w>
## 蛛</w>
## 蛙</w>
## 蛔</w>
## 蛐</w>
## 蛎</w>
## 蛋</w>
## 蛊</w>
## 蛇</w>
## 蛆</w>
## 蛀</w>
## 蚵</w>
## 蚱</w>
## 蚯</w>
## 蚪</w>
## 蚩</w>
## 蚤</w>
## 蚣</w>
## 蚝</w>
## 蚜</w>
## 蚕</w>
## 蚓</w>
## 蚌</w>
## 蚊</w>
## 蚂</w>
## 蚁</w>
## 蚀</w>
## 虾</w>
## 虽</w>
## 虻</w>
## 虹</w>
## 虱</w>
## 虬</w>
## 虫</w>
## 虧</w>
## 虢</w>
## 號</w>
## 虞</w>
## 虜</w>
## 虛</w>
## 虚</w>
## 處</w>
## 虔</w>
## 虑</w>
## 虐</w>
## 虏</w>
## 虎</w>
## 蘿</w>
## 蘼</w>
## 蘸</w>
## 蘭</w>
## 蘚</w>
## 蘑</w>
## 蘋</w>
## 蘊</w>
## 蘇</w>
## 蘆</w>
## 藿</w>
## 藻</w>
## 藹</w>
## 藩</w>
## 藥</w>
## 藤</w>
## 藝</w>
## 藜</w>
## 藕</w>
## 藓</w>
## 藐</w>
## 藏</w>
## 藍</w>
## 藉</w>
## 薹</w>
## 薰</w>
## 薯</w>
## 薬</w>
## 薪</w>
## 薩</w>
## 薨</w>
## 薦</w>
## 薛</w>
## 薙</w>
## 薔</w>
## 薑</w>
## 薏</w>
## 薊</w>
## 薈</w>
## 薇</w>
## 薅</w>
## 薄</w>
## 蕾</w>
## 蕻</w>
## 蕴</w>
## 蕲</w>
## 蕭</w>
## 蕪</w>
## 蕩</w>
## 蕨</w>
## 蕤</w>
## 蕙</w>
## 蕎</w>
## 蕊</w>
## 蕉</w>
## 蕈</w>
## 蕃</w>
## 蕁</w>
## 蔽</w>
## 蔼</w>
## 蔻</w>
## 蔺</w>
## 蔷</w>
## 蔵</w>
## 蔭</w>
## 蔬</w>
## 蔫</w>
## 蔥</w>
## 蔣</w>
## 蔡</w>
## 蔚</w>
## 蔘</w>
## 蔗</w>
## 蔔</w>
## 蔓</w>
## 蔑</w>
## 蓿</w>
## 蓼</w>
## 蓮</w>
## 蓬</w>
## 蓦</w>
## 蓟</w>
## 蓝</w>
## 蓖</w>
## 蓓</w>
## 蓑</w>
## 蓋</w>
## 蓉</w>
## 蓆</w>
## 蓄</w>
## 蓁</w>
## 蒿</w>
## 蒼</w>
## 蒻</w>
## 蒹</w>
## 蒸</w>
## 蒲</w>
## 蒨</w>
## 蒡</w>
## 蒟</w>
## 蒞</w>
## 蒜</w>
## 蒙</w>
## 蒔</w>
## 蒐</w>
## 蒋</w>
## 蒂</w>
## 葺</w>
## 葷</w>
## 葵</w>
## 葳</w>
## 葱</w>
## 葯</w>
## 葭</w>
## 葬</w>
## 葫</w>
## 葩</w>
## 葦</w>
## 董</w>
## 葡</w>
## 葛</w>
## 葚</w>
## 著</w>
## 葉</w>
## 葆</w>
## 落</w>
## 萼</w>
## 萸</w>
## 萵</w>
## 萱</w>
## 萬</w>
## 萩</w>
## 萨</w>
## 萧</w>
## 萦</w>
## 营</w>
## 萤</w>
## 萝</w>
## 萘</w>
## 萎</w>
## 萍</w>
## 萌</w>
## 萋</w>
## 萊</w>
## 萄</w>
## 萃</w>
## 萁</w>
## 菽</w>
## 菸</w>
## 菲</w>
## 菱</w>
## 華</w>
## 菩</w>
## 菡</w>
## 菠</w>
## 菟</w>
## 菜</w>
## 菘</w>
## 菖</w>
## 菓</w>
## 菏</w>
## 菌</w>
## 菊</w>
## 菈</w>
## 菇</w>
## 菅</w>
## 菁</w>
## 菀</w>
## 莿</w>
## 莽</w>
## 莺</w>
## 莹</w>
## 获</w>
## 莴</w>
## 莲</w>
## 莱</w>
## 莫</w>
## 莪</w>
## 莧</w>
## 莢</w>
## 莠</w>
## 莞</w>
## 莘</w>
## 莖</w>
## 莓</w>
## 莒</w>
## 莎</w>
## 莊</w>
## 莉</w>
## 莆</w>
## 莅</w>
## 荽</w>
## 荼</w>
## 荻</w>
## 荸</w>
## 荷</w>
## 荳</w>
## 药</w>
## 荫</w>
## 荪</w>
## 荨</w>
## 荧</w>
## 荥</w>
## 荤</w>
## 荣</w>
## 荡</w>
## 荠</w>
## 荟</w>
## 荞</w>
## 荚</w>
## 荘</w>
## 荖</w>
## 荔</w>
## 荒</w>
## 荐</w>
## 荏</w>
## 荊</w>
## 草</w>
## 荆</w>
## 荃</w>
## 荀</w>
## 茼</w>
## 茹</w>
## 茸</w>
## 茶</w>
## 茵</w>
## 茴</w>
## 茲</w>
## 茱</w>
## 茯</w>
## 茭</w>
## 茬</w>
## 茫</w>
## 茨</w>
## 茧</w>
## 茜</w>
## 茗</w>
## 茏</w>
## 茎</w>
## 茉</w>
## 茅</w>
## 茄</w>
## 范</w>
## 茂</w>
## 茁</w>
## 苻</w>
## 苹</w>
## 苷</w>
## 英</w>
## 苯</w>
## 苫</w>
## 苦</w>
## 若</w>
## 苣</w>
## 苡</w>
## 苟</w>
## 苞</w>
## 苜</w>
## 苛</w>
## 苗</w>
## 苕</w>
## 苔</w>
## 苓</w>
## 苒</w>
## 苑</w>
## 苏</w>
## 苍</w>
## 苋</w>
## 苇</w>
## 苄</w>
## 苁</w>
## 芾</w>
## 芽</w>
## 芻</w>
## 芹</w>
## 芸</w>
## 芷</w>
## 芳</w>
## 花</w>
## 芯</w>
## 芮</w>
## 芭</w>
## 芬</w>
## 芫</w>
## 芪</w>
## 芩</w>
## 芦</w>
## 芥</w>
## 芡</w>
## 芝</w>
## 芜</w>
## 芙</w>
## 芒</w>
## 芎</w>
## 芍</w>
## 芋</w>
## 芊</w>
## 芈</w>
## 芃</w>
## 节</w>
## 艾</w>
## 艺</w>
## 艹</w>
## 艷</w>
## 艳</w>
## 色</w>
## 艱</w>
## 艰</w>
## 良</w>
## 艮</w>
## 艦</w>
## 艙</w>
## 艘</w>
## 艋</w>
## 艇</w>
## 舾</w>
## 舺</w>
## 船</w>
## 舸</w>
## 舷</w>
## 舶</w>
## 舵</w>
## 舱</w>
## 舰</w>
## 般</w>
## 舫</w>
## 航</w>
## 舟</w>
## 舞</w>
## 舜</w>
## 舛</w>
## 舗</w>
## 舖</w>
## 舔</w>
## 舒</w>
## 舐</w>
## 舎</w>
## 舍</w>
## 舌</w>
## 舊</w>
## 舉</w>
## 興</w>
## 與</w>
## 舆</w>
## 舅</w>
## 舂</w>
## 舀</w>
## 臾</w>
## 臼</w>
## 臻</w>
## 臺</w>
## 致</w>
## 至</w>
## 臭</w>
## 臬</w>
## 自</w>
## 臨</w>
## 臧</w>
## 臥</w>
## 臣</w>
## 臟</w>
## 臘</w>
## 臓</w>
## 臍</w>
## 臊</w>
## 臉</w>
## 臆</w>
## 臃</w>
## 臂</w>
## 臀</w>
## 膿</w>
## 膾</w>
## 膽</w>
## 膻</w>
## 膺</w>
## 膳</w>
## 膩</w>
## 膨</w>
## 膦</w>
## 膠</w>
## 膝</w>
## 膜</w>
## 膛</w>
## 膚</w>
## 膘</w>
## 膑</w>
## 膏</w>
## 膊</w>
## 膈</w>
## 膀</w>
## 腿</w>
## 腾</w>
## 腼</w>
## 腻</w>
## 腺</w>
## 腹</w>
## 腸</w>
## 腴</w>
## 腳</w>
## 腱</w>
## 腰</w>
## 腮</w>
## 腭</w>
## 腫</w>
## 腩</w>
## 腦</w>
## 腥</w>
## 腕</w>
## 腔</w>
## 腓</w>
## 腑</w>
## 腐</w>
## 腎</w>
## 腌</w>
## 腋</w>
## 腊</w>
## 腈</w>
## 腆</w>
## 脾</w>
## 脹</w>
## 脸</w>
## 脳</w>
## 脲</w>
## 脱</w>
## 脯</w>
## 脫</w>
## 脩</w>
## 脣</w>
## 脛</w>
## 脚</w>
## 脘</w>
## 脖</w>
## 脓</w>
## 脑</w>
## 脐</w>
## 脏</w>
## 脍</w>
## 脊</w>
## 脉</w>
## 脈</w>
## 脇</w>
## 脆</w>
## 脅</w>
## 脂</w>
## 能</w>
## 胺</w>
## 胸</w>
## 胶</w>
## 胴</w>
## 胳</w>
## 胱</w>
## 胰</w>
## 胯</w>
## 胭</w>
## 胫</w>
## 胧</w>
## 胥</w>
## 胤</w>
## 胡</w>
## 胞</w>
## 胝</w>
## 胜</w>
## 胛</w>
## 胚</w>
## 胖</w>
## 胎</w>
## 胍</w>
## 背</w>
## 胆</w>
## 胄</w>
## 胃</w>
## 胁</w>
## 胀</w>
## 肿</w>
## 肾</w>
## 肽</w>
## 肺</w>
## 肴</w>
## 育</w>
## 肱</w>
## 肯</w>
## 肮</w>
## 肪</w>
## 肩</w>
## 肥</w>
## 肤</w>
## 肢</w>
## 股</w>
## 肠</w>
## 肝</w>
## 肛</w>
## 肚</w>
## 肘</w>
## 肖</w>
## 肓</w>
## 肏</w>
## 肌</w>
## 肋</w>
## 肉</w>
## 肇</w>
## 肆</w>
## 肅</w>
## 肄</w>
## 肃</w>
## 聿</w>
## 聾</w>
## 聽</w>
## 職</w>
## 聶</w>
## 聴</w>
## 聳</w>
## 聲</w>
## 聰</w>
## 聯</w>
## 聪</w>
## 聞</w>
## 聚</w>
## 聘</w>
## 聖</w>
## 联</w>
## 聒</w>
## 职</w>
## 聋</w>
## 聊</w>
## 聆</w>
## 聂</w>
## 耿</w>
## 耽</w>
## 耻</w>
## 耸</w>
## 耷</w>
## 耶</w>
## 耳</w>
## 耨</w>
## 耦</w>
## 耙</w>
## 耘</w>
## 耗</w>
## 耕</w>
## 耒</w>
## 耐</w>
## 耍</w>
## 而</w>
## 耋</w>
## 耆</w>
## 者</w>
## 耄</w>
## 考</w>
## 老</w>
## 耀</w>
## 翼</w>
## 翻</w>
## 翹</w>
## 翳</w>
## 翱</w>
## 翰</w>
## 翩</w>
## 翦</w>
## 翡</w>
## 翠</w>
## 翟</w>
## 翘</w>
## 翔</w>
## 習</w>
## 翎</w>
## 翌</w>
## 翊</w>
## 翅</w>
## 翁</w>
## 羿</w>
## 羽</w>
## 羹</w>
## 羸</w>
## 羲</w>
## 羯</w>
## 義</w>
## 羨</w>
## 羧</w>
## 羥</w>
## 群</w>
## 羣</w>
## 羡</w>
## 羟</w>
## 羞</w>
## 羚</w>
## 羔</w>
## 美</w>
## 羌</w>
## 羊</w>
## 羈</w>
## 羅</w>
## 羁</w>
## 罹</w>
## 罷</w>
## 罵</w>
## 署</w>
## 罰</w>
## 置</w>
## 罪</w>
## 罩</w>
## 罢</w>
## 罡</w>
## 罚</w>
## 罗</w>
## 罕</w>
## 罔</w>
## 网</w>
## 罐</w>
## 罌</w>
## 罄</w>
## 罂</w>
## 缽</w>
## 缺</w>
## 缸</w>
## 缴</w>
## 缱</w>
## 缰</w>
## 缮</w>
## 缭</w>
## 缪</w>
## 缩</w>
## 缨</w>
## 缥</w>
## 缤</w>
## 缢</w>
## 缠</w>
## 缝</w>
## 缜</w>
## 缚</w>
## 缙</w>
## 缘</w>
## 编</w>
## 缕</w>
## 缔</w>
## 缓</w>
## 缎</w>
## 缉</w>
## 缈</w>
## 缇</w>
## 缆</w>
## 缅</w>
## 缄</w>
## 缀</w>
## 绿</w>
## 绾</w>
## 绽</w>
## 综</w>
## 绻</w>
## 绸</w>
## 绷</w>
## 绶</w>
## 绵</w>
## 维</w>
## 绳</w>
## 绰</w>
## 绯</w>
## 绮</w>
## 续</w>
## 绫</w>
## 绪</w>
## 绩</w>
## 继</w>
## 绦</w>
## 绥</w>
## 绣</w>
## 绢</w>
## 绡</w>
## 统</w>
## 绞</w>
## 绝</w>
## 络</w>
## 绛</w>
## 绚</w>
## 给</w>
## 绘</w>
## 绕</w>
## 绔</w>
## 结</w>
## 绒</w>
## 绑</w>
## 经</w>
## 绎</w>
## 绍</w>
## 绊</w>
## 终</w>
## 织</w>
## 细</w>
## 绅</w>
## 组</w>
## 练</w>
## 绀</w>
## 线</w>
## 纾</w>
## 纽</w>
## 纺</w>
## 纹</w>
## 纸</w>
## 纷</w>
## 纶</w>
## 纵</w>
## 纳</w>
## 纲</w>
## 纱</w>
## 纰</w>
## 纯</w>
## 纭</w>
## 纬</w>
## 纫</w>
## 纪</w>
## 纨</w>
## 级</w>
## 约</w>
## 纤</w>
## 纣</w>
## 红</w>
## 纠</w>
## 纜</w>
## 纖</w>
## 纔</w>
## 纓</w>
## 纏</w>
## 纍</w>
## 續</w>
## 纂</w>
## 繽</w>
## 繼</w>
## 繹</w>
## 繳</w>
## 繭</w>
## 繫</w>
## 繪</w>
## 繩</w>
## 繡</w>
## 繞</w>
## 繚</w>
## 繕</w>
## 織</w>
## 繋</w>
## 繇</w>
## 繆</w>
## 繃</w>
## 繁</w>
## 績</w>
## 總</w>
## 縷</w>
## 縴</w>
## 縱</w>
## 縮</w>
## 縫</w>
## 縣</w>
## 縝</w>
## 縛</w>
## 縈</w>
## 縄</w>
## 縁</w>
## 緻</w>
## 緹</w>
## 練</w>
## 緯</w>
## 緬</w>
## 緩</w>
## 編</w>
## 緣</w>
## 締</w>
## 緞</w>
## 緝</w>
## 線</w>
## 緘</w>
## 緒</w>
## 緑</w>
## 総</w>
## 緋</w>
## 緊</w>
## 綿</w>
## 綾</w>
## 綽</w>
## 綻</w>
## 綺</w>
## 綸</w>
## 綵</w>
## 綴</w>
## 網</w>
## 綱</w>
## 維</w>
## 綬</w>
## 綫</w>
## 綦</w>
## 綢</w>
## 綠</w>
## 綜</w>
## 続</w>
## 継</w>
## 經</w>
## 綑</w>
## 綏</w>
## 綁</w>
## 絹</w>
## 絶</w>
## 絵</w>
## 絳</w>
## 絲</w>
## 統</w>
## 絮</w>
## 絨</w>
## 給</w>
## 絢</w>
## 絡</w>
## 絞</w>
## 絕</w>
## 結</w>
## 経</w>
## 絆</w>
## 組</w>
## 絃</w>
## 終</w>
## 紺</w>
## 紹</w>
## 紳</w>
## 細</w>
## 累</w>
## 紮</w>
## 紫</w>
## 紧</w>
## 索</w>
## 紡</w>
## 素</w>
## 紜</w>
## 紛</w>
## 級</w>
## 紙</w>
## 紘</w>
## 紗</w>
## 純</w>
## 紓</w>
## 紐</w>
## 納</w>
## 紋</w>
## 紊</w>
## 紉</w>
## 紅</w>
## 約</w>
## 紂</w>
## 紀</w>
## 糾</w>
## 系</w>
## 糸</w>
## 糰</w>
## 糯</w>
## 糬</w>
## 糧</w>
## 糠</w>
## 糟</w>
## 糞</w>
## 糜</w>
## 糙</w>
## 糗</w>
## 糖</w>
## 糕</w>
## 糍</w>
## 糊</w>
## 糅</w>
## 粿</w>
## 精</w>
## 粽</w>
## 粼</w>
## 粹</w>
## 粵</w>
## 粳</w>
## 粲</w>
## 粱</w>
## 粮</w>
## 粪</w>
## 粧</w>
## 粥</w>
## 粤</w>
## 粟</w>
## 粘</w>
## 粗</w>
## 粕</w>
## 粒</w>
## 粑</w>
## 粉</w>
## 粄</w>
## 籽</w>
## 籼</w>
## 类</w>
## 米</w>
## 籲</w>
## 籮</w>
## 籬</w>
## 籤</w>
## 籠</w>
## 籟</w>
## 籐</w>
## 籍</w>
## 籌</w>
## 籃</w>
## 籁</w>
## 簿</w>
## 簾</w>
## 簽</w>
## 簸</w>
## 簷</w>
## 簫</w>
## 簪</w>
## 簧</w>
## 簦</w>
## 簡</w>
## 簍</w>
## 簌</w>
## 簇</w>
## 篷</w>
## 篱</w>
## 篮</w>
## 篪</w>
## 篩</w>
## 篤</w>
## 篡</w>
## 篠</w>
## 篝</w>
## 篙</w>
## 篓</w>
## 篑</w>
## 築</w>
## 篇</w>
## 篆</w>
## 範</w>
## 篁</w>
## 節</w>
## 箸</w>
## 箴</w>
## 箱</w>
## 箭</w>
## 箫</w>
## 箩</w>
## 管</w>
## 箝</w>
## 算</w>
## 箕</w>
## 箔</w>
## 箐</w>
## 箏</w>
## 箍</w>
## 箋</w>
## 箇</w>
## 简</w>
## 签</w>
## 筹</w>
## 筷</w>
## 筵</w>
## 筲</w>
## 筱</w>
## 筠</w>
## 筝</w>
## 筛</w>
## 策</w>
## 答</w>
## 筒</w>
## 筑</w>
## 筐</w>
## 筏</w>
## 筍</w>
## 筋</w>
## 筊</w>
## 等</w>
## 筆</w>
## 笼</w>
## 笺</w>
## 笹</w>
## 第</w>
## 笨</w>
## 符</w>
## 笠</w>
## 笞</w>
## 笛</w>
## 笙</w>
## 笔</w>
## 笑</w>
## 笏</w>
## 笋</w>
## 笈</w>
## 笆</w>
## 笃</w>
## 竿</w>
## 竽</w>
## 竺</w>
## 竹</w>
## 競</w>
## 端</w>
## 竭</w>
## 童</w>
## 竣</w>
## 章</w>
## 竟</w>
## 竞</w>
## 竜</w>
## 站</w>
## 竖</w>
## 立</w>
## 竊</w>
## 竇</w>
## 竅</w>
## 竄</w>
## 窿</w>
## 窺</w>
## 窯</w>
## 窮</w>
## 窪</w>
## 窩</w>
## 窨</w>
## 窦</w>
## 窥</w>
## 窠</w>
## 窟</w>
## 窝</w>
## 窜</w>
## 窘</w>
## 窗</w>
## 窖</w>
